{
  "version": "1.0",
  "truncation": null,
  "padding": null,
  "added_tokens": [
    {
      "id": 0,
      "content": "<|endoftext|>",
      "single_word": false,
      "lstrip": false,
      "rstrip": false,
      "normalized": false,
      "special": true
    }
  ],
  "normalizer": null,
  "pre_tokenizer": {
    "type": "ByteLevel",
    "add_prefix_space": false,
    "trim_offsets": true,
    "use_regex": true
  },
  "post_processor": null,
  "decoder": {
    "type": "ByteLevel",
    "add_prefix_space": true,
    "trim_offsets": true,
    "use_regex": true
  },
  "model": {
    "type": "BPE",
    "dropout": null,
    "unk_token": null,
    "continuing_subword_prefix": null,
    "end_of_word_suffix": null,
    "fuse_unk": false,
    "byte_fallback": false,
    "ignore_merges": false,
    "vocab": {
      "<|endoftext|>": 0,
      "!": 1,
      "\"": 2,
      "#": 3,
      "$": 4,
      "%": 5,
      "&": 6,
      "'": 7,
      "(": 8,
      ")": 9,
      "*": 10,
      "+": 11,
      ",": 12,
      "-": 13,
      ".": 14,
      "/": 15,
      "0": 16,
      "1": 17,
      "2": 18,
      "3": 19,
      "4": 20,
      "5": 21,
      "6": 22,
      "7": 23,
      "8": 24,
      "9": 25,
      ":": 26,
      ";": 27,
      "<": 28,
      "=": 29,
      ">": 30,
      "?": 31,
      "@": 32,
      "A": 33,
      "B": 34,
      "C": 35,
      "D": 36,
      "E": 37,
      "F": 38,
      "G": 39,
      "H": 40,
      "I": 41,
      "J": 42,
      "K": 43,
      "L": 44,
      "M": 45,
      "N": 46,
      "O": 47,
      "P": 48,
      "Q": 49,
      "R": 50,
      "S": 51,
      "T": 52,
      "U": 53,
      "V": 54,
      "W": 55,
      "X": 56,
      "Y": 57,
      "Z": 58,
      "[": 59,
      "\\": 60,
      "]": 61,
      "^": 62,
      "_": 63,
      "`": 64,
      "a": 65,
      "b": 66,
      "c": 67,
      "d": 68,
      "e": 69,
      "f": 70,
      "g": 71,
      "h": 72,
      "i": 73,
      "j": 74,
      "k": 75,
      "l": 76,
      "m": 77,
      "n": 78,
      "o": 79,
      "p": 80,
      "q": 81,
      "r": 82,
      "s": 83,
      "t": 84,
      "u": 85,
      "v": 86,
      "w": 87,
      "x": 88,
      "y": 89,
      "z": 90,
      "{": 91,
      "|": 92,
      "}": 93,
      "~": 94,
      "¡": 95,
      "¢": 96,
      "£": 97,
      "¤": 98,
      "¥": 99,
      "¦": 100,
      "§": 101,
      "¨": 102,
      "©": 103,
      "ª": 104,
      "«": 105,
      "¬": 106,
      "®": 107,
      "¯": 108,
      "°": 109,
      "±": 110,
      "²": 111,
      "³": 112,
      "´": 113,
      "µ": 114,
      "¶": 115,
      "·": 116,
      "¸": 117,
      "¹": 118,
      "º": 119,
      "»": 120,
      "¼": 121,
      "½": 122,
      "¾": 123,
      "¿": 124,
      "À": 125,
      "Á": 126,
      "Â": 127,
      "Ã": 128,
      "Ä": 129,
      "Å": 130,
      "Æ": 131,
      "Ç": 132,
      "È": 133,
      "É": 134,
      "Ê": 135,
      "Ë": 136,
      "Ì": 137,
      "Í": 138,
      "Î": 139,
      "Ï": 140,
      "Ð": 141,
      "Ñ": 142,
      "Ò": 143,
      "Ó": 144,
      "Ô": 145,
      "Õ": 146,
      "Ö": 147,
      "×": 148,
      "Ø": 149,
      "Ù": 150,
      "Ú": 151,
      "Û": 152,
      "Ü": 153,
      "Ý": 154,
      "Þ": 155,
      "ß": 156,
      "à": 157,
      "á": 158,
      "â": 159,
      "ã": 160,
      "ä": 161,
      "å": 162,
      "æ": 163,
      "ç": 164,
      "è": 165,
      "é": 166,
      "ê": 167,
      "ë": 168,
      "ì": 169,
      "í": 170,
      "î": 171,
      "ï": 172,
      "ð": 173,
      "ñ": 174,
      "ò": 175,
      "ó": 176,
      "ô": 177,
      "õ": 178,
      "ö": 179,
      "÷": 180,
      "ø": 181,
      "ù": 182,
      "ú": 183,
      "û": 184,
      "ü": 185,
      "ý": 186,
      "þ": 187,
      "ÿ": 188,
      "Ā": 189,
      "ā": 190,
      "Ă": 191,
      "ă": 192,
      "Ą": 193,
      "ą": 194,
      "Ć": 195,
      "ć": 196,
      "Ĉ": 197,
      "ĉ": 198,
      "Ċ": 199,
      "ċ": 200,
      "Č": 201,
      "č": 202,
      "Ď": 203,
      "ď": 204,
      "Đ": 205,
      "đ": 206,
      "Ē": 207,
      "ē": 208,
      "Ĕ": 209,
      "ĕ": 210,
      "Ė": 211,
      "ė": 212,
      "Ę": 213,
      "ę": 214,
      "Ě": 215,
      "ě": 216,
      "Ĝ": 217,
      "ĝ": 218,
      "Ğ": 219,
      "ğ": 220,
      "Ġ": 221,
      "ġ": 222,
      "Ģ": 223,
      "ģ": 224,
      "Ĥ": 225,
      "ĥ": 226,
      "Ħ": 227,
      "ħ": 228,
      "Ĩ": 229,
      "ĩ": 230,
      "Ī": 231,
      "ī": 232,
      "Ĭ": 233,
      "ĭ": 234,
      "Į": 235,
      "į": 236,
      "İ": 237,
      "ı": 238,
      "Ĳ": 239,
      "ĳ": 240,
      "Ĵ": 241,
      "ĵ": 242,
      "Ķ": 243,
      "ķ": 244,
      "ĸ": 245,
      "Ĺ": 246,
      "ĺ": 247,
      "Ļ": 248,
      "ļ": 249,
      "Ľ": 250,
      "ľ": 251,
      "Ŀ": 252,
      "ŀ": 253,
      "Ł": 254,
      "ł": 255,
      "Ń": 256,
      "an": 257,
      "er": 258,
      "ar": 259,
      "Ġd": 260,
      "en": 261,
      "Ġs": 262,
      "Ġb": 263,
      "in": 264,
      "Ġk": 265,
      "at": 266,
      "ang": 267,
      "as": 268,
      "Ġm": 269,
      "Ġp": 270,
      "Ġt": 271,
      "al": 272,
      "ak": 273,
      "un": 274,
      "am": 275,
      "is": 276,
      "ah": 277,
      "ya": 278,
      "us": 279,
      "Ġl": 280,
      "**": 281,
      "tu": 282,
      "ik": 283,
      "em": 284,
      "ing": 285,
      "el": 286,
      "ap": 287,
      "et": 288,
      "Ġdi": 289,
      "it": 290,
      "ed": 291,
      "yang": 292,
      "ad": 293,
      "Ġc": 294,
      "eng": 295,
      "ih": 296,
      "ek": 297,
      "Ġyang": 298,
      "on": 299,
      "au": 300,
      "ai": 301,
      "kan": 302,
      "eb": 303,
      "es": 304,
      "Ġj": 305,
      "Ġr": 306,
      "nya": 307,
      "il": 308,
      "ant": 309,
      "Ġh": 310,
      "ur": 311,
      "ĠS": 312,
      "ari": 313,
      "Ġ(": 314,
      "ul": 315,
      "ĠT": 316,
      "ĠA": 317,
      "Ġdan": 318,
      "uk": 319,
      "or": 320,
      "ag": 321,
      "ut": 322,
      "ist": 323,
      "Ġg": 324,
      "Ġn": 325,
      "ĠB": 326,
      "Ġâ": 327,
      "um": 328,
      "tuk": 329,
      "ĠK": 330,
      "Ġke": 331,
      "Ġak": 332,
      "Ġter": 333,
      "ol": 334,
      "ung": 335,
      "used": 336,
      "Ġ**": 337,
      "unused": 338,
      "ir": 339,
      "Ġmen": 340,
      "user": 341,
      "Ġper": 342,
      "ot": 343,
      "ĠP": 344,
      "ep": 345,
      "--": 346,
      "Ġber": 347,
      "sist": 348,
      "Ġat": 349,
      "Ġun": 350,
      "im": 351,
      "engan": 352,
      "isa": 353,
      "Ġ<": 354,
      "assist": 355,
      "assistant": 356,
      "ĠM": 357,
      "ĢĶ": 358,
      "emb": 359,
      "Ġ1": 360,
      "id": 361,
      "Ġuntuk": 362,
      "Ġin": 363,
      "asi": 364,
      "Ġdengan": 365,
      "ud": 366,
      "ĠâĢĶ": 367,
      "Ġf": 368,
      "ĠĠ": 369,
      "ok": 370,
      "Ġatau": 371,
      "itu": 372,
      "ab": 373,
      "Ġ|": 374,
      "anya": 375,
      "ama": 376,
      "ebih": 377,
      "om": 378,
      "Ġaku": 379,
      "amu": 380,
      "ti": 381,
      "aw": 382,
      "Ġad": 383,
      "Ġbisa": 384,
      "ip": 385,
      "end": 386,
      "Ġ2": 387,
      "ĠI": 388,
      "Ġlebih": 389,
      "ara": 390,
      "angan": 391,
      "aya": 392,
      "00": 393,
      "ĠH": 394,
      "si": 395,
      "api": 396,
      "akan": 397,
      "Ġdari": 398,
      "uat": 399,
      "ĠC": 400,
      "adi": 401,
      "Ġ3": 402,
      "Ġw": 403,
      "Ġitu": 404,
      "up": 405,
      "ga": 406,
      "ĠR": 407,
      "Ġkamu": 408,
      "aj": 409,
      "Ġini": 410,
      "amp": 411,
      "ĠD": 412,
      "alam": 413,
      "âĶ": 414,
      "alau": 415,
      "ent": 416,
      "ong": 417,
      "ro": 418,
      "Ġmeng": 419,
      "udah": 420,
      "angk": 421,
      "ac": 422,
      ":**": 423,
      "ĠL": 424,
      "uh": 425,
      "ku": 426,
      "and": 427,
      "od": 428,
      "ana": 429,
      "ain": 430,
      "agi": 431,
      "apa": 432,
      "ĠJ": 433,
      "Ġada": 434,
      "amb": 435,
      "ay": 436,
      "isi": 437,
      "Ġker": 438,
      "ahan": 439,
      "Ġbi": 440,
      "ikan": 441,
      "emp": 442,
      "ita": 443,
      "eg": 444,
      "ĠG": 445,
      "Ġkar": 446,
      "os": 447,
      "ingg": 448,
      "ec": 449,
      "alu": 450,
      "Ġmemb": 451,
      "idak": 452,
      "ob": 453,
      "ĠO": 454,
      "ali": 455,
      "Ġ\"": 456,
      "ĠIn": 457,
      "alah": 458,
      "ena": 459,
      "Ġng": 460,
      "Ġbang": 461,
      "Ġ5": 462,
      "tr": 463,
      "Ġsek": 464,
      "Ġv": 465,
      "âĶĢ": 466,
      "air": 467,
      "iap": 468,
      "Ġseb": 469,
      "Ġbanget": 470,
      "ter": 471,
      "Ġya": 472,
      "Ġmas": 473,
      "aman": 474,
      "----": 475,
      "ata": 476,
      "Ġtidak": 477,
      "akai": 478,
      "âĶĢâĶĢ": 479,
      "Ġset": 480,
      "Ġmem": 481,
      "ub": 482,
      "ĠAku": 483,
      "na": 484,
      "atu": 485,
      "Ġar": 486,
      "Ġtan": 487,
      "Ġpen": 488,
      "ua": 489,
      "eh": 490,
      "Ġbuat": 491,
      "Ġmer": 492,
      "op": 493,
      "Ġsep": 494,
      "entu": 495,
      "ĠW": 496,
      "atan": 497,
      "ĠU": 498,
      "ukan": 499,
      "ingk": 500,
      "Ġhar": 501,
      "aran": 502,
      "Ġjadi": 503,
      "da": 504,
      "Ġpas": 505,
      "Ġdalam": 506,
      "Ġkalau": 507,
      "asa": 508,
      "Ġair": 509,
      "Ġsudah": 510,
      "erti": 511,
      "Ġsel": 512,
      "ig": 513,
      "unya": 514,
      "gak": 515,
      "Ġkarena": 516,
      "uka": 517,
      "ati": 518,
      "ĠN": 519,
      "ia": 520,
      "Ġtapi": 521,
      "ĠĠĠĠ": 522,
      "Ġ4": 523,
      "Ġju": 524,
      "aik": 525,
      "Ġkita": 526,
      "Ġnggak": 527,
      "Ġpakai": 528,
      "ic": 529,
      "Ġbar": 530,
      "yak": 531,
      "tik": 532,
      "ðŁ": 533,
      "Ġtek": 534,
      "Ġpr": 535,
      "of": 536,
      "Ġterl": 537,
      "Ġhari": 538,
      "Ġbel": 539,
      "Ġmin": 540,
      "ĠTapi": 541,
      "Ġsem": 542,
      "pa": 543,
      "oc": 544,
      "ĠF": 545,
      "angkah": 546,
      "Ġmel": 547,
      "anj": 548,
      "Ġkec": 549,
      "Ġjuga": 550,
      "Ġharus": 551,
      "Ġser": 552,
      "oba": 553,
      "uran": 554,
      "ind": 555,
      "Ġperl": 556,
      "Ġsed": 557,
      "Ġpunya": 558,
      "utu": 559,
      "Ġseperti": 560,
      "inya": 561,
      "alo": 562,
      "mu": 563,
      "Ġban": 564,
      "ulai": 565,
      "Ġ'": 566,
      "aja": 567,
      "elah": 568,
      "aling": 569,
      "Ġakan": 570,
      "oal": 571,
      "Ġkel": 572,
      "Ġst": 573,
      "Ġkon": 574,
      "ĠKalau": 575,
      ").": 576,
      "aat": 577,
      "âķ": 578,
      "ada": 579,
      "Ġsaya": 580,
      "enar": 581,
      "angat": 582,
      "ib": 583,
      "ulu": 584,
      "ode": 585,
      "ĠE": 586,
      "Ġapa": 587,
      "aun": 588,
      "ĠIni": 589,
      "le": 590,
      "ilih": 591,
      "imana": 592,
      "arang": 593,
      "anti": 594,
      "Ġpro": 595,
      "agai": 596,
      "asil": 597,
      "Ġag": 598,
      "ĠRp": 599,
      "Ġsamp": 600,
      "ex": 601,
      "orm": 602,
      "Ġkecil": 603,
      "unakan": 604,
      "epat": 605,
      "Ġdet": 606,
      "Ġdulu": 607,
      "ĠTentu": 608,
      ".\"": 609,
      "Ġsatu": 610,
      "awab": 611,
      "Ġpem": 612,
      "ika": 613,
      "annya": 614,
      "ert": 615,
      "nik": 616,
      "iri": 617,
      "000": 618,
      "ke": 619,
      "Ġlagi": 620,
      "ntuk": 621,
      "Ġjam": 622,
      "Ġadalah": 623,
      "Ġmeny": 624,
      "arna": 625,
      "eks": 626,
      "ula": 627,
      "Ġpaling": 628,
      "angs": 629,
      "oft": 630,
      "Ġterlalu": 631,
      "Ġmau": 632,
      "akah": 633,
      "Ġpert": 634,
      "Ġap": 635,
      "ast": 636,
      "><": 637,
      "Ġbiar": 638,
      "enting": 639,
      "ĠAda": 640,
      "esi": 641,
      "he": 642,
      "Ĳâķ": 643,
      "angsung": 644,
      "Ġal": 645,
      "Ġtr": 646,
      "Ġdip": 647,
      "inggi": 648,
      "ĠTer": 649,
      "Ġcara": 650,
      "Ġmulai": 651,
      "Ġtip": 652,
      "elum": 653,
      "Ġbaw": 654,
      "Ġpeng": 655,
      "asanya": 656,
      "Ġperlu": 657,
      "olong": 658,
      "Ġbik": 659,
      "eda": 660,
      "ukup": 661,
      "ef": 662,
      "__": 663,
      "Ġtet": 664,
      "awaban": 665,
      "Ġ+": 666,
      "elas": 667,
      "Ġbaru": 668,
      "asih": 669,
      "Ġ-": 670,
      "Ġpenting": 671,
      "),": 672,
      "itas": 673,
      "Ġkay": 674,
      "Ġbah": 675,
      "inggu": 676,
      "Ġmenit": 677,
      "Ġbikin": 678,
      "Ġsama": 679,
      "arik": 680,
      "ĲâķĲâķ": 681,
      "Ġdaun": 682,
      "Ġlangsung": 683,
      "uj": 684,
      "agian": 685,
      "ihat": 686,
      "âĶĢâĶĢâĶĢâĶĢ": 687,
      "ĠOke": 688,
      "ingan": 689,
      "ĠHalo": 690,
      "ĠBisa": 691,
      "etode": 692,
      "ext": 693,
      "imp": 694,
      "enang": 695,
      "Ġ7": 696,
      "re": 697,
      "Ġas": 698,
      "uc": 699,
      "ĠBer": 700,
      "Ġsaat": 701,
      "Jawaban": 702,
      "<|": 703,
      "|>": 704,
      "endoft": 705,
      "endoftext": 706,
      "ual": 707,
      "ĠAn": 708,
      "agus": 709,
      "aca": 710,
      "ja": 711,
      "ĠðŁ": 712,
      "utuh": 713,
      "og": 714,
      "Ġ6": 715,
      "Ġatas": 716,
      "af": 717,
      "Ġpot": 718,
      "ingin": 719,
      "anan": 720,
      "ens": 721,
      "uar": 722,
      "eter": 723,
      "ĠUntuk": 724,
      "omp": 725,
      "tur": 726,
      "sih": 727,
      "ev": 728,
      "Ġsekali": 729,
      "Ġsec": 730,
      "Ġsoal": 731,
      "int": 732,
      "ingkas": 733,
      ")**": 734,
      "ungk": 735,
      "Ġpan": 736,
      "Ġ10": 737,
      "ahkan": 738,
      "enc": 739,
      "esar": 740,
      "Ġdib": 741,
      "Ġmasih": 742,
      "ow": 743,
      "Ġcukup": 744,
      "itar": 745,
      "ocok": 746,
      "Ġsebelum": 747,
      "ĠWah": 748,
      "asar": 749,
      "Ġsetiap": 750,
      "ase": 751,
      "Ġgimana": 752,
      "Ġtinggi": 753,
      "Ġdis": 754,
      "ail": 755,
      "Ġterb": 756,
      "Ġlap": 757,
      "AN": 758,
      "imal": 759,
      "tas": 760,
      "Ġlalu": 761,
      "Ġwarna": 762,
      "Ġsampai": 763,
      "---": 764,
      "Ġkh": 765,
      "Ġbawah": 766,
      "Ġbagian": 767,
      "Ġsangat": 768,
      "Ġsecara": 769,
      "Ġtemp": 770,
      "oh": 771,
      "Ġbagus": 772,
      "Ġuk": 773,
      "Ġpertama": 774,
      "ikit": 775,
      "Ġtanpa": 776,
      "Â°": 777,
      "if": 778,
      "10": 779,
      "Ġor": 780,
      "ew": 781,
      "unc": 782,
      "Ġput": 783,
      "urang": 784,
      "Ġmak": 785,
      "Ġsp": 786,
      "ikasi": 787,
      "Ġlangkah": 788,
      "ľħ": 789,
      "ont": 790,
      "Ġkertas": 791,
      "uang": 792,
      "tikel": 793,
      "ide": 794,
      "ĠJangan": 795,
      "oin": 796,
      "tif": 797,
      "Ġ=": 798,
      "ĠSet": 799,
      "Ġ*": 800,
      "Ġtangan": 801,
      "get": 802,
      "Ġbanyak": 803,
      "anc": 804,
      "Ġcm": 805,
      "alnya": 806,
      "Ġant": 807,
      "Ġsedikit": 808,
      "ungan": 809,
      "Ġkering": 810,
      "Ġgr": 811,
      "Ġaja": 812,
      "Ġsemua": 813,
      "Ġbesar": 814,
      "--------": 815,
      "Ġcoba": 816,
      "ĠAp": 817,
      "Ġsekitar": 818,
      "ater": 819,
      "Ġteknik": 820,
      "Ġjangan": 821,
      "lat": 822,
      "Ġjelas": 823,
      "akukan": 824,
      "Ġkak": 825,
      "uhu": 826,
      "Ġpemula": 827,
      "gr": 828,
      "Ġstr": 829,
      "Ġartikel": 830,
      "..": 831,
      "Ġmenj": 832,
      "entuk": 833,
      "Ġtetap": 834,
      "Ġtah": 835,
      "âĶģ": 836,
      "engk": 837,
      "Ġbak": 838,
      "Ġeks": 839,
      "aktu": 840,
      "etak": 841,
      "st": 842,
      "cm": 843,
      "ekarang": 844,
      "Ġsering": 845,
      "ungkin": 846,
      "est": 847,
      "Ġpar": 848,
      "Ġdit": 849,
      "las": 850,
      "Ġ8": 851,
      "âĶģâĶģ": 852,
      "Ġsetelah": 853,
      "ĠV": 854,
      "Ġpos": 855,
      "antu": 856,
      "usi": 857,
      "ahaya": 858,
      "atih": 859,
      "Ġkain": 860,
      "Ġsebagai": 861,
      "ajar": 862,
      "Ġmengg": 863,
      "Ġlain": 864,
      "Ġch": 865,
      "ikut": 866,
      "ch": 867,
      "Ġman": 868,
      "Ġ30": 869,
      "apan": 870,
      "**:": 871,
      "eber": 872,
      "ulan": 873,
      "ĠTerus": 874,
      "ta": 875,
      "):**": 876,
      "Ġjar": 877,
      "Ġagar": 878,
      "Ġberb": 879,
      "Ġlemb": 880,
      "Ġkayak": 881,
      "hir": 882,
      "Ġmenc": 883,
      "Ġcocok": 884,
      "ĨĴ": 885,
      "Ġpada": 886,
      "anjang": 887,
      "aris": 888,
      "ĠBi": 889,
      "Ġpol": 890,
      "engah": 891,
      "Ġukuran": 892,
      "Ġbaik": 893,
      "ĠSaya": 894,
      "ala": 895,
      "Ġse": 896,
      "Ġsaja": 897,
      "ĠKamu": 898,
      "ine": 899,
      "awat": 900,
      "Ġtanaman": 901,
      "ans": 902,
      "omb": 903,
      "anjut": 904,
      "ver": 905,
      "Ġket": 906,
      "Ġgel": 907,
      "Ġselama": 908,
      "ess": 909,
      "otol": 910,
      "ensi": 911,
      "otal": 912,
      "ĠPer": 913,
      "Ġ20": 914,
      "isan": 915,
      "Ġbiasanya": 916,
      "ack": 917,
      "ĠSekarang": 918,
      "Ġked": 919,
      "ma": 920,
      "Ġringkas": 921,
      "ingga": 922,
      "Ġbukan": 923,
      "Ġperm": 924,
      "Ġterj": 925,
      "Ġtolong": 926,
      "igh": 927,
      "itam": 928,
      "onal": 929,
      "alan": 930,
      "Ġdia": 931,
      "uan": 932,
      "Ġmasuk": 933,
      "Ġdetail": 934,
      "Ġbutuh": 935,
      "Ġsend": 936,
      "Ġhasil": 937,
      "edia": 938,
      "ea": 939,
      "Ġan": 940,
      "Ġcat": 941,
      "ĠĠĠĠĠĠĠĠ": 942,
      "Ġ15": 943,
      "Ġrum": 944,
      "Ġdir": 945,
      "Ġbantu": 946,
      "Ġputih": 947,
      "Ġtips": 948,
      "isik": 949,
      "ve": 950,
      "ira": 951,
      "entang": 952,
      "apat": 953,
      "ĠâĨĴ": 954,
      "ingkat": 955,
      "Ġny": 956,
      "Ġef": 957,
      "Ġminggu": 958,
      "Ġmembuat": 959,
      "Ġses": 960,
      "Ġsih": 961,
      "Ġâľħ": 962,
      "atihan": 963,
      "Ġsup": 964,
      "ambut": 965,
      "Ġmudah": 966,
      "Ġcepat": 967,
      "ilang": 968,
      "Ġkes": 969,
      "Ġseh": 970,
      "astikan": 971,
      "Ġpilih": 972,
      "ori": 973,
      "ĠJadi": 974,
      "Ġmend": 975,
      "umb": 976,
      "Ġsemp": 977,
      "Ġres": 978,
      "Ġwaktu": 979,
      "Ġver": 980,
      "eberapa": 981,
      "ses": 982,
      "Ġbenar": 983,
      "ĊĠĠ": 984,
      "Ġkep": 985,
      "anyaan": 986,
      "ĠAnda": 987,
      "ulit": 988,
      "ubang": 989,
      "Ġmat": 990,
      "Ġalam": 991,
      "ukaan": 992,
      "enna": 993,
      "Ġut": 994,
      "Ġform": 995,
      "Ġhal": 996,
      "Ġpanas": 997,
      "etu": 998,
      "¸ı": 999,
      "ï¸ı": 1000,
      "Ġkali": 1001,
      "Ġnih": 1002,
      "Ġkasih": 1003,
      "Ġsuhu": 1004,
      "antai": 1005,
      "Ġdetik": 1006,
      "eksi": 1007,
      "ting": 1008,
      "angg": 1009,
      "Ġaman": 1010,
      "usus": 1011,
      "Ġmembantu": 1012,
      "Ġbek": 1013,
      "Ġkal": 1014,
      "ĠOh": 1015,
      "abel": 1016,
      "Ġ[": 1017,
      "ungg": 1018,
      "ini": 1019,
      "Ġingin": 1020,
      "ĠApa": 1021,
      "ĠGem": 1022,
      "Ġuj": 1023,
      "usuk": 1024,
      "Ġudah": 1025,
      "Ġtadi": 1026,
      "Ġbiasa": 1027,
      "ilik": 1028,
      "Ġkok": 1029,
      "ulang": 1030,
      "ĠGemma": 1031,
      "Ġagak": 1032,
      "Ġpemb": 1033,
      "urut": 1034,
      "oleh": 1035,
      "Ġbersih": 1036,
      "50": 1037,
      "Ġmengh": 1038,
      "Ġlem": 1039,
      "Ġaw": 1040,
      "Ġpel": 1041,
      "Ġbotol": 1042,
      "Ġa": 1043,
      "ĠDi": 1044,
      "Ġlama": 1045,
      "##": 1046,
      "uma": 1047,
      "Ġtamb": 1048,
      "ĠApakah": 1049,
      "per": 1050,
      "Ġgitu": 1051,
      "ĠY": 1052,
      "ian": 1053,
      "iga": 1054,
      "Ġringan": 1055,
      "Ġide": 1056,
      "Ġdr": 1057,
      "Ġsk": 1058,
      "ener": 1059,
      "Ġrend": 1060,
      "ĠSiap": 1061,
      "Ġsiap": 1062,
      "abil": 1063,
      "oto": 1064,
      "aga": 1065,
      "Ġmetode": 1066,
      "asan": 1067,
      "Ġrambut": 1068,
      "20": 1069,
      "Ġo": 1070,
      "Ġpita": 1071,
      "ĠMau": 1072,
      "mas": 1073,
      "epan": 1074,
      "ameter": 1075,
      "Ġalami": 1076,
      "Ġcuma": 1077,
      "Ġ&": 1078,
      "Ġken": 1079,
      "ij": 1080,
      "Ġthe": 1081,
      "Ġtert": 1082,
      "---|": 1083,
      "ump": 1084,
      "ort": 1085,
      "Ġkhusus": 1086,
      "ĠâĶ": 1087,
      "Ġhanya": 1088,
      "Ġpanjang": 1089,
      "Ġz": 1090,
      "ekat": 1091,
      "ips": 1092,
      "kl": 1093,
      "Ġdig": 1094,
      "mana": 1095,
      "Ġdil": 1096,
      "Ġmana": 1097,
      "urun": 1098,
      "atif": 1099,
      "Ġmember": 1100,
      "urat": 1101,
      "mm": 1102,
      "In": 1103,
      "ulis": 1104,
      "Ġpermukaan": 1105,
      "Ġbeli": 1106,
      "agaimana": 1107,
      "ight": 1108,
      "istem": 1109,
      "ĠItu": 1110,
      "âĢĶ": 1111,
      "Ġbat": 1112,
      "ure": 1113,
      "ons": 1114,
      "Ġjika": 1115,
      "Ġefek": 1116,
      "imat": 1117,
      "udut": 1118,
      "Ġem": 1119,
      "Ġpeny": 1120,
      "Ġminyak": 1121,
      "Ġnanti": 1122,
      "Ġarea": 1123,
      "eknik": 1124,
      "ebar": 1125,
      "ebab": 1126,
      "Ġsekarang": 1127,
      "**.": 1128,
      "Ġmerek": 1129,
      "Ġlanjut": 1130,
      "ĲâķĲâķĲâķĲâķ": 1131,
      "Ġposisi": 1132,
      "ĠSoal": 1133,
      "Ġapakah": 1134,
      "Ġlil": 1135,
      "Ġteks": 1136,
      "30": 1137,
      "Ġtentang": 1138,
      "Ġtali": 1139,
      "ill": 1140,
      "Ġtrans": 1141,
      "ĠPastikan": 1142,
      "Ġcahaya": 1143,
      "Ġkurang": 1144,
      "Ġkol": 1145,
      "Ġtengah": 1146,
      "Ġ#": 1147,
      "indari": 1148,
      "Ġterus": 1149,
      "Ġkaki": 1150,
      "ambil": 1151,
      "Ġmedia": 1152,
      "akt": 1153,
      "Ġkomp": 1154,
      "Ġpoin": 1155,
      "Ġters": 1156,
      "wa": 1157,
      "ĠInd": 1158,
      "uai": 1159,
      "Ġlubang": 1160,
      "aham": 1161,
      "urn": 1162,
      "engar": 1163,
      "likasi": 1164,
      "ĠCoba": 1165,
      "Ġmemang": 1166,
      "ĠâĶĤ": 1167,
      "Ġkuat": 1168,
      "eja": 1169,
      "Ġdepan": 1170,
      "era": 1171,
      "oda": 1172,
      "ĠSt": 1173,
      "yl": 1174,
      "Ġseg": 1175,
      "ium": 1176,
      "ebal": 1177,
      "omend": 1178,
      "ĠIya": 1179,
      "Ġbatu": 1180,
      "Ġmenarik": 1181,
      "atis": 1182,
      "ahal": 1183,
      "ayang": 1184,
      "ĠSel": 1185,
      "Ġtipis": 1186,
      "15": 1187,
      "isalnya": 1188,
      "Ġmalam": 1189,
      "ĠTolong": 1190,
      "und": 1191,
      "Ġrumah": 1192,
      "âĶĢâĶĢâĶĢâĶĢâĶĢâĶĢâĶĢâĶĢ": 1193,
      "akang": 1194,
      "ram": 1195,
      "ekomend": 1196,
      "Ġakar": 1197,
      "Ġsendiri": 1198,
      "Ġi": 1199,
      "Ġbeberapa": 1200,
      "imb": 1201,
      "ĠSetelah": 1202,
      "anda": 1203,
      "Ġto": 1204,
      "Ġkem": 1205,
      "ĠHari": 1206,
      "erh": 1207,
      "Ġkr": 1208,
      "ijau": 1209,
      "Ġhenna": 1210,
      "Ġujung": 1211,
      "evel": 1212,
      "Ġmungkin": 1213,
      "old": 1214,
      "ingung": 1215,
      "ĠGunakan": 1216,
      "Ġtempat": 1217,
      "Ġger": 1218,
      "ipat": 1219,
      "Ġkat": 1220,
      "Ġbakal": 1221,
      "Ġsus": 1222,
      "apas": 1223,
      "Ġlihat": 1224,
      "angka": 1225,
      "Ġrendah": 1226,
      "Ġnaik": 1227,
      "unj": 1228,
      "Ġutama": 1229,
      "Ġand": 1230,
      "Ġdik": 1231,
      "duk": 1232,
      "auh": 1233,
      "ead": 1234,
      "okus": 1235,
      "Ġtotal": 1236,
      "tern": 1237,
      "etakan": 1238,
      "ĠKar": 1239,
      "one": 1240,
      "Ġmalah": 1241,
      "Ġhingga": 1242,
      "ĠSoalnya": 1243,
      "ĠGimana": 1244,
      "):": 1245,
      "Ġ0": 1246,
      "Ġbulan": 1247,
      "Ġsin": 1248,
      "ona": 1249,
      "Ġlatihan": 1250,
      "sa": 1251,
      "Ġtahan": 1252,
      "any": 1253,
      "Ġdong": 1254,
      "Ġkalimat": 1255,
      "uas": 1256,
      "Ġbingung": 1257,
      "uning": 1258,
      "ikat": 1259,
      "Ġ9": 1260,
      "ukkan": 1261,
      "Ġsimp": 1262,
      "ertanyaan": 1263,
      "eckl": 1264,
      "Ġbert": 1265,
      "Ġhitam": 1266,
      "arium": 1267,
      "Ġberat": 1268,
      "Ġdasar": 1269,
      "ecklist": 1270,
      "Ġsistem": 1271,
      "ug": 1272,
      "Ġkayu": 1273,
      "atur": 1274,
      "Ġstabil": 1275,
      "Ġkan": 1276,
      "Ġmemp": 1277,
      "Ġkeb": 1278,
      "li": 1279,
      "Ġ]": 1280,
      "usak": 1281,
      "Ġcer": 1282,
      "ore": 1283,
      "Ġbekas": 1284,
      "Ġtahu": 1285,
      "ĠMak": 1286,
      "Ġberg": 1287,
      "Ġluar": 1288,
      "Ġdua": 1289,
      "Ġsedang": 1290,
      "ontoh": 1291,
      "uku": 1292,
      "ebut": 1293,
      "Ġbahan": 1294,
      "Ġis": 1295,
      "ĠPr": 1296,
      "Ġsudut": 1297,
      "Ġkiri": 1298,
      "Ġtepat": 1299,
      "udget": 1300,
      "Ġperb": 1301,
      "ĠMetode": 1302,
      "Ġawal": 1303,
      "utup": 1304,
      "ĠNah": 1305,
      "ampang": 1306,
      "Ġlilin": 1307,
      "Ġbelakang": 1308,
      "Ġtel": 1309,
      "Ġsesuai": 1310,
      "``": 1311,
      "Ġantara": 1312,
      "upa": 1313,
      "Ġpend": 1314,
      "Ġlapisan": 1315,
      "ustr": 1316,
      "lah": 1317,
      "Ġsalah": 1318,
      "Ġmeja": 1319,
      "ubah": 1320,
      "Ġlengk": 1321,
      "Ġpola": 1322,
      "Ġmata": 1323,
      "Ġsaran": 1324,
      "antung": 1325,
      "isiko": 1326,
      "Ġterk": 1327,
      "Ġkanan": 1328,
      "eny": 1329,
      "Ġminimal": 1330,
      "alaman": 1331,
      "Ġkedua": 1332,
      "emen": 1333,
      "idur": 1334,
      "Ġberh": 1335,
      "Ġop": 1336,
      "Ġum": 1337,
      "arti": 1338,
      "mb": 1339,
      "rop": 1340,
      "Ġmakan": 1341,
      "Ġfoto": 1342,
      "alis": 1343,
      "ones": 1344,
      "Ġalat": 1345,
      "Ġdata": 1346,
      "Ġtanah": 1347,
      "Ġsisi": 1348,
      "Ġgunakan": 1349,
      "Ġberd": 1350,
      "Ġ50": 1351,
      "Ġind": 1352,
      "...": 1353,
      "etr": 1354,
      "otong": 1355,
      "Ġpotong": 1356,
      "Ġdic": 1357,
      "Ġ12": 1358,
      "aku": 1359,
      "th": 1360,
      "ĠAt": 1361,
      "Ġmerah": 1362,
      "aranya": 1363,
      "Ġot": 1364,
      "iran": 1365,
      "iring": 1366,
      "empel": 1367,
      "Ġpast": 1368,
      "Ġbentuk": 1369,
      "Ġmasalah": 1370,
      "âĶģâĶģâĶģâĶģ": 1371,
      "Ġbelajar": 1372,
      "Ġsh": 1373,
      "arkan": 1374,
      "Ġmenjadi": 1375,
      "AR": 1376,
      "asah": 1377,
      "Ġorang": 1378,
      "Ġchecklist": 1379,
      "ER": 1380,
      "anding": 1381,
      "Ġmod": 1382,
      "min": 1383,
      "onesia": 1384,
      "esan": 1385,
      "ĠIng": 1386,
      "urna": 1387,
      "olusi": 1388,
      "itik": 1389,
      "Ġberk": 1390,
      "Ġberl": 1391,
      "Ġsupaya": 1392,
      "Ġumum": 1393,
      "Ġtidur": 1394,
      "ampur": 1395,
      "Ġbed": 1396,
      "Ġhalus": 1397,
      "uara": 1398,
      "ĠJika": 1399,
      "urah": 1400,
      "Langkah": 1401,
      "Ġfor": 1402,
      "ng": 1403,
      "Ġperlahan": 1404,
      "Hari": 1405,
      "adang": 1406,
      "Ġkond": 1407,
      "arget": 1408,
      "Ġpak": 1409,
      "Ġrep": 1410,
      "inyl": 1411,
      "emu": 1412,
      "hat": 1413,
      "oil": 1414,
      "Ġkulit": 1415,
      "Ġtebal": 1416,
      "qu": 1417,
      "ond": 1418,
      "rot": 1419,
      "ĠAtau": 1420,
      "Ġcetakan": 1421,
      "ull": 1422,
      "Ġekstr": 1423,
      "erhana": 1424,
      "ĠIndonesia": 1425,
      "Ġpastikan": 1426,
      "Ġterlihat": 1427,
      "Ġinf": 1428,
      "**ðŁ": 1429,
      "asikan": 1430,
      "Ġmaks": 1431,
      "Ġdes": 1432,
      "Ġpand": 1433,
      "enis": 1434,
      "opi": 1435,
      "Ġmereka": 1436,
      "Ġsuka": 1437,
      "Ġgaris": 1438,
      "Ġ100": 1439,
      "Ġmenggunakan": 1440,
      "Ġversi": 1441,
      "Ġsinar": 1442,
      "uny": 1443,
      "asaran": 1444,
      "oma": 1445,
      "Ġturun": 1446,
      "inding": 1447,
      "Ġtep": 1448,
      "Ġud": 1449,
      "Ġgampang": 1450,
      "otor": 1451,
      "late": 1452,
      "tion": 1453,
      "Ġcair": 1454,
      "esif": 1455,
      "epas": 1456,
      "Ġbagaimana": 1457,
      "lik": 1458,
      "Ġok": 1459,
      "Ġterjem": 1460,
      "asarkan": 1461,
      "Ġgerakan": 1462,
      "ĠPilih": 1463,
      "Ġtanam": 1464,
      "Ġpus": 1465,
      "pl": 1466,
      "Ġpenuh": 1467,
      "Ġkeras": 1468,
      "Ġdat": 1469,
      "ekomendasi": 1470,
      "Ġakhir": 1471,
      "Ġulang": 1472,
      "ekan": 1473,
      "Ġhijau": 1474,
      "istr": 1475,
      "urangi": 1476,
      "isal": 1477,
      "alik": 1478,
      "ĠHP": 1479,
      "Ġaplikasi": 1480,
      "ulasi": 1481,
      "iter": 1482,
      "Ġfl": 1483,
      "Ġjauh": 1484,
      "Ġsir": 1485,
      "AT": 1486,
      "Pertanyaan": 1487,
      "ilai": 1488,
      "Ġberbeda": 1489,
      "Ġwaj": 1490,
      "unci": 1491,
      "tinya": 1492,
      "Ġkur": 1493,
      "Ġrapi": 1494,
      "aan": 1495,
      "Ġsempurna": 1496,
      "Ġpern": 1497,
      "egang": 1498,
      "arn": 1499,
      "ipatan": 1500,
      "anting": 1501,
      "Ġpaham": 1502,
      "akhir": 1503,
      "Ġcari": 1504,
      "ĠPert": 1505,
      "etul": 1506,
      "Ġideal": 1507,
      "Ġkam": 1508,
      "inasi": 1509,
      "EN": 1510,
      "iliki": 1511,
      "ook": 1512,
      "line": 1513,
      "upuk": 1514,
      "Ġrak": 1515,
      "Ġhid": 1516,
      "Ġmurah": 1517,
      "Ġproses": 1518,
      "uangan": 1519,
      "ĠTeknik": 1520,
      "inggal": 1521,
      "Ġkeluar": 1522,
      "Ġtak": 1523,
      "etakkan": 1524,
      "ation": 1525,
      "ĠHai": 1526,
      "Ġpenasaran": 1527,
      "Ġhasilnya": 1528,
      "Ġtitik": 1529,
      "ilas": 1530,
      "ampu": 1531,
      "Ġsederhana": 1532,
      "Ġudara": 1533,
      "amat": 1534,
      "osi": 1535,
      "Ġdipakai": 1536,
      "wal": 1537,
      "rof": 1538,
      "Ġjari": 1539,
      "ilah": 1540,
      "Ġfr": 1541,
      "Ġbahasa": 1542,
      "our": 1543,
      "atas": 1544,
      "Ġrib": 1545,
      "Rp": 1546,
      "Ġlay": 1547,
      "Ġbahas": 1548,
      "ard": 1549,
      "Ġy": 1550,
      "antal": 1551,
      "Ġkons": 1552,
      "Ġlupa": 1553,
      "Ġdapat": 1554,
      "Ġwa": 1555,
      "Ġsab": 1556,
      "IN": 1557,
      "ering": 1558,
      "Ġpenc": 1559,
      "ahari": 1560,
      "benar": 1561,
      "all": 1562,
      "Ġterp": 1563,
      "utan": 1564,
      "ucing": 1565,
      "Ġjad": 1566,
      "Ġmes": 1567,
      "Ġjarum": 1568,
      "Ġof": 1569,
      "Ġcek": 1570,
      "ahap": 1571,
      "ock": 1572,
      "Ġmemiliki": 1573,
      "Ġterasa": 1574,
      "Ġfokus": 1575,
      "ambat": 1576,
      "urus": 1577,
      "ĠSem": 1578,
      "ord": 1579,
      "____": 1580,
      "gris": 1581,
      "Ġlakukan": 1582,
      "utr": 1583,
      "ĠMas": 1584,
      "Ġbers": 1585,
      "Ġbaca": 1586,
      "Ġbudget": 1587,
      "Ġmatahari": 1588,
      "Ġkondisi": 1589,
      "kira": 1590,
      "rb": 1591,
      "Ġsesi": 1592,
      "ĠInggris": 1593,
      "Ġtemb": 1594,
      "lastik": 1595,
      "SI": 1596,
      "Ġpl": 1597,
      "Ġfil": 1598,
      "Ġrata": 1599,
      "Ġproduk": 1600,
      "ju": 1601,
      "ualitas": 1602,
      "itur": 1603,
      "elm": 1604,
      "Ġsamping": 1605,
      "ate": 1606,
      "adap": 1607,
      "|--------": 1608,
      "Ġang": 1609,
      "Ġlingk": 1610,
      "Ġsisa": 1611,
      "Untuk": 1612,
      "Ġpagi": 1613,
      "Ġkerja": 1614,
      "itan": 1615,
      "Ġruang": 1616,
      "Ġhangat": 1617,
      "Ġunit": 1618,
      "Ġkonsist": 1619,
      "ĠMen": 1620,
      "awatir": 1621,
      "Ġtahun": 1622,
      "Ġsej": 1623,
      "eat": 1624,
      "Ġbelum": 1625,
      "av": 1626,
      "esai": 1627,
      "Ġob": 1628,
      "amanya": 1629,
      "angko": 1630,
      "ish": 1631,
      "ĠPertama": 1632,
      "ĠDaun": 1633,
      "Ġbu": 1634,
      "12": 1635,
      "ukul": 1636,
      "Ġon": 1637,
      "Ġel": 1638,
      "Ġre": 1639,
      "obek": 1640,
      "ĠTr": 1641,
      "Ġjarak": 1642,
      "Ġbeb": 1643,
      "Ġlembut": 1644,
      "poin": 1645,
      "Ġsuara": 1646,
      "agu": 1647,
      ".'": 1648,
      "enari": 1649,
      "enarnya": 1650,
      "isual": 1651,
      "Ġkhawatir": 1652,
      "Ġjenis": 1653,
      "ima": 1654,
      "Ġdekat": 1655,
      "imen": 1656,
      "Ġgelap": 1657,
      "Ġiya": 1658,
      "Ġaktif": 1659,
      "ĠAr": 1660,
      "ĠAk": 1661,
      "sihkan": 1662,
      "Ġtambahan": 1663,
      "ambar": 1664,
      "Ġtertarik": 1665,
      "perimen": 1666,
      "Ini": 1667,
      "ion": 1668,
      "angkat": 1669,
      "Ġmengurangi": 1670,
      "Ġformal": 1671,
      "di": 1672,
      "Ġdingin": 1673,
      "age": 1674,
      "Ġmakin": 1675,
      "masing": 1676,
      "ubuh": 1677,
      "60": 1678,
      "unggu": 1679,
      "ue": 1680,
      "Ġdinding": 1681,
      "Ġâķ": 1682,
      "andar": 1683,
      "ustru": 1684,
      "omor": 1685,
      "Ġnapas": 1686,
      "ebihan": 1687,
      "Ġkelemb": 1688,
      "engg": 1689,
      "ĠSp": 1690,
      "iru": 1691,
      "Ġbasah": 1692,
      "Ġlebar": 1693,
      "ĠSeb": 1694,
      "Ġterjemahkan": 1695,
      "Ġbilang": 1696,
      "Ġkaca": 1697,
      "Ġjelasin": 1698,
      "Ġplastik": 1699,
      "ĠKel": 1700,
      "Ġmaksimal": 1701,
      "Halo": 1702,
      "Ġprangko": 1703,
      "Ġpernah": 1704,
      "ensa": 1705,
      "ajam": 1706,
      "ĠZ": 1707,
      "Ġ25": 1708,
      "oam": 1709,
      "Ġharga": 1710,
      "ĠBiasanya": 1711,
      "Ġkus": 1712,
      "uncul": 1713,
      "ĠCh": 1714,
      "uhan": 1715,
      "les": 1716,
      "igi": 1717,
      "Ġbeda": 1718,
      "Ġvinyl": 1719,
      "ĠMakasih": 1720,
      "AL": 1721,
      "Ġkek": 1722,
      "Ġjelaskan": 1723,
      "Ġasli": 1724,
      "Ġamp": 1725,
      "ĠDan": 1726,
      "Ġ60": 1727,
      "ĠAl": 1728,
      "langkah": 1729,
      "eri": 1730,
      "itung": 1731,
      "Ġbarang": 1732,
      "Ġus": 1733,
      "gi": 1734,
      "amkan": 1735,
      "Ġpenj": 1736,
      "Ġkata": 1737,
      "Ġberapa": 1738,
      "Ġsc": 1739,
      "Ġmul": 1740,
      "ÃĹ": 1741,
      "Ġkucing": 1742,
      "erap": 1743,
      "utin": 1744,
      "utar": 1745,
      "Ġbl": 1746,
      "ender": 1747,
      "ĠBerikut": 1748,
      "ANG": 1749,
      "kr": 1750,
      "Ġkant": 1751,
      "ĠMer": 1752,
      "Ġwater": 1753,
      "Ġanti": 1754,
      "awatan": 1755,
      "erb": 1756,
      "Ġlum": 1757,
      "Ġbuku": 1758,
      "ĠSenang": 1759,
      "unga": 1760,
      "Ġsens": 1761,
      "eli": 1762,
      "âĶĤ": 1763,
      "Ġpin": 1764,
      "âľħ": 1765,
      "Ġbr": 1766,
      "ĠKet": 1767,
      "Ģĵ": 1768,
      "uru": 1769,
      "Ġmahal": 1770,
      "rasi": 1771,
      "ĠDari": 1772,
      "==": 1773,
      "akar": 1774,
      "ĠpH": 1775,
      "erja": 1776,
      "'.": 1777,
      "ment": 1778,
      "ambahkan": 1779,
      "!**": 1780,
      "Ġ40": 1781,
      "Ġselesai": 1782,
      "ĠBuat": 1783,
      "encang": 1784,
      "Ġberarti": 1785,
      "Ġrisiko": 1786,
      "unting": 1787,
      "iku": 1788,
      "ahat": 1789,
      "Ġliter": 1790,
      "---|---|": 1791,
      "Tips": 1792,
      "onis": 1793,
      "Ġbiaya": 1794,
      "ks": 1795,
      "arga": 1796,
      "Ġbantal": 1797,
      "Ġkena": 1798,
      "Ġpers": 1799,
      "ela": 1800,
      "Ġkl": 1801,
      "Ġist": 1802,
      "me": 1803,
      "Ġdok": 1804,
      "AM": 1805,
      "Ġtubuh": 1806,
      "ĠMulai": 1807,
      "Ġjustru": 1808,
      "Ġ*\"": 1809,
      "Ġlog": 1810,
      "Ġsabun": 1811,
      "Ġnemu": 1812,
      "alisis": 1813,
      "Ġmik": 1814,
      "Ġdij": 1815,
      "rarium": 1816,
      "uci": 1817,
      "adah": 1818,
      "100": 1819,
      "ED": 1820,
      "epatan": 1821,
      "Ġmerata": 1822,
      "Ġdap": 1823,
      "ï¸ıâ": 1824,
      "Ġpendek": 1825,
      "ihatan": 1826,
      "uktur": 1827,
      "Ġtepi": 1828,
      "ĥ£": 1829,
      "ï¸ıâĥ£": 1830,
      "Ġprot": 1831,
      "arg": 1832,
      "Ġjamur": 1833,
      "eman": 1834,
      "trol": 1835,
      "uruh": 1836,
      "anyakan": 1837,
      "Ġlipatan": 1838,
      "ĿĮ": 1839,
      "Ġkont": 1840,
      "angi": 1841,
      "Ġtajam": 1842,
      "teri": 1843,
      "Ġkopi": 1844,
      "otak": 1845,
      "âĸ": 1846,
      "pada": 1847,
      "Ġsi": 1848,
      "row": 1849,
      "Ġmuncul": 1850,
      "ri": 1851,
      "###": 1852,
      "asang": 1853,
      "unjukkan": 1854,
      "Ġjalan": 1855,
      "irahat": 1856,
      "Ġnot": 1857,
      "AH": 1858,
      "Ġtulis": 1859,
      "osis": 1860,
      "ity": 1861,
      "omong": 1862,
      "ĠTan": 1863,
      "Ġaroma": 1864,
      "ny": 1865,
      "Ġcac": 1866,
      "ick": 1867,
      "Ġjadwal": 1868,
      "ĠKay": 1869,
      "Ġvari": 1870,
      "40": 1871,
      "ĠLevel": 1872,
      "ej": 1873,
      "Ġkut": 1874,
      "oot": 1875,
      "Ġkonsisten": 1876,
      "Ġruangan": 1877,
      "nis": 1878,
      "80": 1879,
      "ĠSk": 1880,
      "men": 1881,
      "Ġdeh": 1882,
      "ĠHindari": 1883,
      "Ġstandar": 1884,
      "Ġdar": 1885,
      "Ġkenapa": 1886,
      "Ġit": 1887,
      "Ġth": 1888,
      "Ġpupuk": 1889,
      "Ġlensa": 1890,
      "Ġeksperimen": 1891,
      "Ġcok": 1892,
      "rame": 1893,
      "aksi": 1894,
      "Ġbe": 1895,
      "Ġmemberikan": 1896,
      "Ġbeg": 1897,
      "ĠMisalnya": 1898,
      "ĠTidak": 1899,
      "Ġcl": 1900,
      "ampuran": 1901,
      "Ġover": 1902,
      "Ġpad": 1903,
      "Ġperc": 1904,
      "Ġkepala": 1905,
      "Ġprof": 1906,
      "ton": 1907,
      "ith": 1908,
      "Ġambil": 1909,
      "Ġlantai": 1910,
      "ingat": 1911,
      "Ġterakhir": 1912,
      "impan": 1913,
      "Ġlampu": 1914,
      "Ġminta": 1915,
      "ĠYang": 1916,
      "Ġlengkap": 1917,
      "Ġtanda": 1918,
      "Ġgigi": 1919,
      "enario": 1920,
      "hari": 1921,
      "iah": 1922,
      "Ġtumb": 1923,
      "Ġkartu": 1924,
      "Ġrutin": 1925,
      "amun": 1926,
      "Ġac": 1927,
      "Ġsil": 1928,
      "Ġmus": 1929,
      "Ġnomor": 1930,
      "Ġkursi": 1931,
      "Ġkelihatan": 1932,
      "Ġmanis": 1933,
      "aterai": 1934,
      "Ġefektif": 1935,
      "Ġwax": 1936,
      "ell": 1937,
      "araf": 1938,
      "eher": 1939,
      "ormal": 1940,
      "Ġdengar": 1941,
      "adar": 1942,
      "Ġarah": 1943,
      "able": 1944,
      "over": 1945,
      "ĊĠ": 1946,
      "Ġkualitas": 1947,
      "Ġtim": 1948,
      "osisi": 1949,
      "Ġwadah": 1950,
      "utrisi": 1951,
      "Ġkadang": 1952,
      "ush": 1953,
      "embali": 1954,
      "Ġspesif": 1955,
      "intang": 1956,
      "ĠKarena": 1957,
      "Ġpasti": 1958,
      "ci": 1959,
      "Ġbedanya": 1960,
      "ĠLangkah": 1961,
      "Ġparameter": 1962,
      "Ġmisalnya": 1963,
      "Ġvs": 1964,
      "ower": 1965,
      "out": 1966,
      "pr": 1967,
      "art": 1968,
      "Ġsepatu": 1969,
      "Ġbuka": 1970,
      "akit": 1971,
      "Ġpengg": 1972,
      "Ġterrarium": 1973,
      "Ġmengan": 1974,
      "own": 1975,
      "Ġ24": 1976,
      "Ġtumbuh": 1977,
      "Ġpasta": 1978,
      "Ġsebenarnya": 1979,
      "25": 1980,
      "ĠSaat": 1981,
      "Ġkand": 1982,
      "___": 1983,
      "Ġtakut": 1984,
      "entuh": 1985,
      "Ġpingg": 1986,
      "500": 1987,
      "Ġmini": 1988,
      "antap": 1989,
      "ĠSetiap": 1990,
      "ĠĠĠ": 1991,
      "Ġcatat": 1992,
      "eras": 1993,
      "tikal": 1994,
      "ood": 1995,
      "hatikan": 1996,
      "arat": 1997,
      "Ġsehingga": 1998,
      "Ġterg": 1999,
      "Ġbener": 2000,
      "Ġtekanan": 2001,
      "Ġhelm": 2002,
      "arnanya": 2003,
      "olum": 2004,
      "Ġleher": 2005,
      "Ġzona": 2006,
      "ĠWarna": 2007,
      "Ġdesain": 2008,
      "unyi": 2009,
      "Ġterjadi": 2010,
      "Ġganti": 2011,
      "Ġkolom": 2012,
      "ĠBetul": 2013,
      "Ġbusuk": 2014,
      "ombang": 2015,
      "ternatif": 2016,
      "hati": 2017,
      "Ġterang": 2018,
      "Nah": 2019,
      "Ġ>": 2020,
      "adu": 2021,
      "ĠSiapkan": 2022,
      "Ġmembentuk": 2023,
      "idah": 2024,
      "Ġseluruh": 2025,
      "Ġringkasannya": 2026,
      "Ġmain": 2027,
      "ekt": 2028,
      "entara": 2029,
      "Ġbay": 2030,
      "PS": 2031,
      "tiv": 2032,
      "Ġkos": 2033,
      "Ġmiring": 2034,
      "tup": 2035,
      "Ġkaku": 2036,
      "empat": 2037,
      "Ġtinggal": 2038,
      "rase": 2039,
      "Ġkuning": 2040,
      "Ġkencang": 2041,
      "Ġtutup": 2042,
      "Ġjut": 2043,
      "Ġtekstur": 2044,
      "Ġterh": 2045,
      "udama": 2046,
      "set": 2047,
      "Ġbatang": 2048,
      "Ġtok": 2049,
      "Ġmelihat": 2050,
      "ŃĲ": 2051,
      "Ġtetes": 2052,
      "oran": 2053,
      "```": 2054,
      "Ġnada": 2055,
      "ose": 2056,
      "Ġrusak": 2057,
      "Ġhati": 2058,
      "iram": 2059,
      "Ġtiap": 2060,
      "ĠPro": 2061,
      "Ġmenunjukkan": 2062,
      "Ġretak": 2063,
      "Ġwarnanya": 2064,
      "ĠCat": 2065,
      "Ġâķĳ": 2066,
      "Ġsusah": 2067,
      "Ġcatatan": 2068,
      "olume": 2069,
      "Ġrel": 2070,
      "Ġboleh": 2071,
      "itr": 2072,
      "iksa": 2073,
      "Ġoke": 2074,
      "uanya": 2075,
      "Ġml": 2076,
      "Ġtab": 2077,
      "ĠDengan": 2078,
      "ahit": 2079,
      "Ġcaranya": 2080,
      "Ġmerusak": 2081,
      "anyak": 2082,
      "Ġlurus": 2083,
      "Ġpilihan": 2084,
      "Ġberikut": 2085,
      "Ġanak": 2086,
      "akin": 2087,
      "ice": 2088,
      "Ġmeter": 2089,
      "ox": 2090,
      "Ġkembali": 2091,
      "ĠBerd": 2092,
      "ade": 2093,
      "Ġasam": 2094,
      "Ġsebelumnya": 2095,
      "edaan": 2096,
      "iv": 2097,
      "Ġisi": 2098,
      "ampir": 2099,
      "endela": 2100,
      "vest": 2101,
      "Ġperawatan": 2102,
      "ujan": 2103,
      "ĠKer": 2104,
      "Tentu": 2105,
      "Ġ45": 2106,
      "Ġvisual": 2107,
      "unt": 2108,
      "Ġpanduan": 2109,
      "Ġnutrisi": 2110,
      "de": 2111,
      "Ġfitur": 2112,
      "Ġrekomendasi": 2113,
      "irim": 2114,
      "ewat": 2115,
      "indah": 2116,
      "Ġsumb": 2117,
      "ambah": 2118,
      "Ġgaya": 2119,
      "Ġstres": 2120,
      "Ġnyaman": 2121,
      "Ġgak": 2122,
      "urutmu": 2123,
      "Ġint": 2124,
      "ola": 2125,
      "asilkan": 2126,
      "ial": 2127,
      "akter": 2128,
      "Ġsehari": 2129,
      "Ġx": 2130,
      "istrik": 2131,
      "Ġmasing": 2132,
      "arankan": 2133,
      "oad": 2134,
      "tumb": 2135,
      "sid": 2136,
      "Ġgor": 2137,
      "Cara": 2138,
      "hil": 2139,
      "ĠAm": 2140,
      "Ġsimpul": 2141,
      "aktis": 2142,
      "Ġribu": 2143,
      "Ġ80": 2144,
      "Ġkutip": 2145,
      "ji": 2146,
      "angga": 2147,
      "amanan": 2148,
      "Ġgram": 2149,
      "ĠKed": 2150,
      "olog": 2151,
      "Ġmemper": 2152,
      "ach": 2153,
      "etuju": 2154,
      "Ġberhasil": 2155,
      "ombinasi": 2156,
      "ipt": 2157,
      "Ġlar": 2158,
      "Ġsepeda": 2159,
      "faat": 2160,
      "itif": 2161,
      "agonis": 2162,
      "Ġpertanyaan": 2163,
      "erak": 2164,
      "EL": 2165,
      "raf": 2166,
      "ĠâĢĵ": 2167,
      "enti": 2168,
      "Ġdilakukan": 2169,
      "itch": 2170,
      "Ġbiarkan": 2171,
      "aju": 2172,
      "Ġsantai": 2173,
      "uaikan": 2174,
      "enapa": 2175,
      "Ġhalaman": 2176,
      "ertas": 2177,
      "ungkus": 2178,
      "Ġteg": 2179,
      "Ġsehat": 2180,
      "Ġvertikal": 2181,
      "Ġkunci": 2182,
      "Ġrapat": 2183,
      "ect": 2184,
      "ron": 2185,
      "Ġpake": 2186,
      "Ġtembok": 2187,
      "etisi": 2188,
      "ite": 2189,
      "oro": 2190,
      "oll": 2191,
      "Ġspesifik": 2192,
      "Ġev": 2193,
      "nyata": 2194,
      "top": 2195,
      "Ġpat": 2196,
      "Ġpul": 2197,
      "Ġbaterai": 2198,
      "form": 2199,
      "omatis": 2200,
      "ree": 2201,
      "umlah": 2202,
      "ĠKita": 2203,
      "abis": 2204,
      "ace": 2205,
      "Ġest": 2206,
      "Ġpres": 2207,
      "apak": 2208,
      "Ġbaris": 2209,
      "Ġmotor": 2210,
      "Ġcontoh": 2211,
      "ungsi": 2212,
      "Ġdiringkas": 2213,
      "Ġkabel": 2214,
      "Ġrasa": 2215,
      "Ġwith": 2216,
      "ĠBiar": 2217,
      "Ġsol": 2218,
      "Ġpet": 2219,
      "ory": 2220,
      "Ġtanya": 2221,
      "Ġtua": 2222,
      "ital": 2223,
      "ĠUk": 2224,
      "Ġsambil": 2225,
      "Ġdim": 2226,
      "Ġoleh": 2227,
      "ance": 2228,
      "\",": 2229,
      "Ġtemplate": 2230,
      "dung": 2231,
      "aks": 2232,
      "aruh": 2233,
      "ĠMinggu": 2234,
      "ING": 2235,
      "Ġasal": 2236,
      "Ġtersebut": 2237,
      "Ġkul": 2238,
      "atuh": 2239,
      "ash": 2240,
      "ĠHasil": 2241,
      "Ġketiga": 2242,
      "Ġtrik": 2243,
      "aru": 2244,
      "emi": 2245,
      "Ġgambar": 2246,
      "awar": 2247,
      "Set": 2248,
      "Ġkelembapan": 2249,
      "Ġ/": 2250,
      "ica": 2251,
      "Ġseminggu": 2252,
      "AS": 2253,
      "gen": 2254,
      "apkan": 2255,
      "Ġkelapa": 2256,
      "Ġ70": 2257,
      "Ġdaripada": 2258,
      "Ġtarik": 2259,
      "Ġstruktur": 2260,
      "Ġtop": 2261,
      "igo": 2262,
      "Ġsd": 2263,
      "Ġbunga": 2264,
      "ĠDis": 2265,
      "ĠEng": 2266,
      "aktor": 2267,
      "Ġ14": 2268,
      "Ġref": 2269,
      "lish": 2270,
      "Ġterbaik": 2271,
      "Ġcanting": 2272,
      "Ġskor": 2273,
      "ĠSh": 2274,
      "oyang": 2275,
      "imbang": 2276,
      "Ġjuta": 2277,
      "ugas": 2278,
      "ĠAd": 2279,
      "ly": 2280,
      "port": 2281,
      "atnya": 2282,
      "tutup": 2283,
      "uga": 2284,
      "ĠMari": 2285,
      "Ġbul": 2286,
      "aft": 2287,
      "Ġbub": 2288,
      "Ġtenang": 2289,
      "Ġ90": 2290,
      "Ġhand": 2291,
      "aiknya": 2292,
      "ayan": 2293,
      "gan": 2294,
      "Ġtoko": 2295,
      "Ġbawa": 2296,
      "Ġbahwa": 2297,
      "Ġjendela": 2298,
      "Ġsiapkan": 2299,
      "Ġol": 2300,
      "Ġpenyebab": 2301,
      "Ġsenar": 2302,
      "Ġbiru": 2303,
      "Ġcuka": 2304,
      "ĠOR": 2305,
      "ingkatkan": 2306,
      "aus": 2307,
      "Ġmilih": 2308,
      "ĠLED": 2309,
      "ry": 2310,
      "Ġtusuk": 2311,
      "Ġmemilih": 2312,
      "Ġkenari": 2313,
      "Ġpenjelas": 2314,
      "Ġbad": 2315,
      "ateg": 2316,
      "enda": 2317,
      "ape": 2318,
      "ontrol": 2319,
      "enyebab": 2320,
      "Ġrepetisi": 2321,
      "awa": 2322,
      "ou": 2323,
      "ins": 2324,
      "Ġcampuran": 2325,
      "heet": 2326,
      "Ġantar": 2327,
      "ĠTh": 2328,
      "Ġtertentu": 2329,
      "Ġsoda": 2330,
      "**,": 2331,
      "igure": 2332,
      "Ġpelan": 2333,
      "Ġmenghasilkan": 2334,
      "Ġparaf": 2335,
      "alagi": 2336,
      "gel": 2337,
      "isasi": 2338,
      "ĠTips": 2339,
      "Ġterd": 2340,
      "Ġ500": 2341,
      "not": 2342,
      "sm": 2343,
      "andingan": 2344,
      "Metode": 2345,
      "Ġparah": 2346,
      "ust": 2347,
      "gar": 2348,
      "vestasi": 2349,
      "Ġkira": 2350,
      "ĠKat": 2351,
      "emat": 2352,
      "Ġsl": 2353,
      "misal": 2354,
      "jam": 2355,
      "ĠBoleh": 2356,
      "rata": 2357,
      "are": 2358,
      "Ġdiameter": 2359,
      "endam": 2360,
      "Ġangin": 2361,
      "Ġsen": 2362,
      "Ġmati": 2363,
      "inal": 2364,
      "âĶģâĶģâĶģâĶģâĶģâĶģâĶģâĶģ": 2365,
      "Ġgula": 2366,
      "Ġotomatis": 2367,
      "ĠPas": 2368,
      "Ġtarget": 2369,
      "Ġpotongan": 2370,
      "Ġmengandung": 2371,
      "ukulen": 2372,
      "ilikon": 2373,
      "wax": 2374,
      "Ġmesin": 2375,
      "Ġlistrik": 2376,
      "ĠIde": 2377,
      "ening": 2378,
      "arah": 2379,
      "utuhan": 2380,
      "ĠCocok": 2381,
      "Ġmemberi": 2382,
      "Ġbal": 2383,
      "Ġbuah": 2384,
      "Ġe": 2385,
      "Ġmm": 2386,
      "Ġemang": 2387,
      "ental": 2388,
      "Ġangka": 2389,
      "ĠBiarkan": 2390,
      "antangan": 2391,
      "Ġmic": 2392,
      "ĠSuhu": 2393,
      "orong": 2394,
      "ĠMungkin": 2395,
      "Ġberdasarkan": 2396,
      "ark": 2397,
      "ato": 2398,
      "Ġrot": 2399,
      "Ġes": 2400,
      "ĠSure": 2401,
      "Ġhindari": 2402,
      "Ġmir": 2403,
      "Ġdur": 2404,
      "ĠMin": 2405,
      "Ġlipat": 2406,
      "Ġharian": 2407,
      "mbil": 2408,
      "sama": 2409,
      "ĠLebih": 2410,
      "Ġresin": 2411,
      "Ġtaman": 2412,
      "Ġdarurat": 2413,
      "Ġlidah": 2414,
      "inc": 2415,
      "ebabkan": 2416,
      "Ġbayang": 2417,
      "uatan": 2418,
      "Ġterbatas": 2419,
      "Ġrek": 2420,
      "Ġsegar": 2421,
      "aikan": 2422,
      "Ġlabel": 2423,
      "aluasi": 2424,
      "atural": 2425,
      "ARI": 2426,
      "egah": 2427,
      "Ġistirahat": 2428,
      "Ġlok": 2429,
      "tumbuhan": 2430,
      "itis": 2431,
      "az": 2432,
      "ikuti": 2433,
      "Ġlewat": 2434,
      "etik": 2435,
      "edium": 2436,
      "Ġlong": 2437,
      "ĠOr": 2438,
      "łï¸ı": 2439,
      "Ġcerita": 2440,
      "Ġcoklat": 2441,
      "aknya": 2442,
      "Ġmenempel": 2443,
      "ĲâķĲâķĲâķĲâķĲâķĲâķĲâķĲâķ": 2444,
      "Ġsim": 2445,
      "sif": 2446,
      "Ġkarakter": 2447,
      "Ġpraktis": 2448,
      "ink": 2449,
      "Ġsendok": 2450,
      "Ġwajar": 2451,
      "ĠLetakkan": 2452,
      "Ġbahu": 2453,
      "Ġringkasan": 2454,
      "ĠTenang": 2455,
      "tic": 2456,
      "Ġdisebut": 2457,
      "fer": 2458,
      "Ġback": 2459,
      "ami": 2460,
      "Ġonline": 2461,
      "Ġikan": 2462,
      "isakah": 2463,
      "Ġgag": 2464,
      "ĠRingkas": 2465,
      "ĠLakukan": 2466,
      "inta": 2467,
      "lus": 2468,
      "Ġkotak": 2469,
      "Ġminum": 2470,
      "eswax": 2471,
      "Ġrasanya": 2472,
      "ļłï¸ı": 2473,
      "elan": 2474,
      "Ġkeren": 2475,
      "âĶĢâĶĢâĶĢâĶĢâĶĢâĶĢâĶĢâĶĢâĶĢâĶĢâĶĢâĶĢâĶĢâĶĢâĶĢâĶĢ": 2476,
      "Ġlevel": 2477,
      "ĠTarget": 2478,
      "Ġkantor": 2479,
      "ĠContoh": 2480,
      "Ġlambat": 2481,
      "astis": 2482,
      "Ġditanyakan": 2483,
      "Ġup": 2484,
      "Ġpanik": 2485,
      "ĠLap": 2486,
      "ainya": 2487,
      "Ġterhadap": 2488,
      "ping": 2489,
      "Ġkusudama": 2490,
      "ĠBerdasarkan": 2491,
      "Ġternyata": 2492,
      "IK": 2493,
      "ait": 2494,
      "Ġseru": 2495,
      "ohol": 2496,
      "Ġapi": 2497,
      "Ġsub": 2498,
      "ehatan": 2499,
      "indung": 2500,
      "Ġmadu": 2501,
      "Ġhujan": 2502,
      "ĠGr": 2503,
      "Ġwajib": 2504,
      "Ġperhatikan": 2505,
      "ĠEnglish": 2506,
      "ĠÃĹ": 2507,
      "Teknik": 2508,
      "oub": 2509,
      "elup": 2510,
      "eser": 2511,
      "ĠâĿĮ": 2512,
      "ikir": 2513,
      "Ġkecepatan": 2514,
      "Ġsilikon": 2515,
      "Ġmelakukan": 2516,
      "Mau": 2517,
      "Ġbau": 2518,
      "alog": 2519,
      "Ġdigital": 2520,
      "ĠLalu": 2521,
      "ĠSed": 2522,
      "agn": 2523,
      "Ġmanik": 2524,
      "ĠCek": 2525,
      "Sk": 2526,
      "ubahan": 2527,
      "entur": 2528,
      "Ġlingkungan": 2529,
      "Ġsakit": 2530,
      "onik": 2531,
      "ĠSetuju": 2532,
      "Ġlemari": 2533,
      "Ġnormal": 2534,
      "eperti": 2535,
      "Ġmenjaga": 2536,
      "Ġopt": 2537,
      "bukan": 2538,
      "imu": 2539,
      "Ġjatuh": 2540,
      "ĠAng": 2541,
      "Ġfisik": 2542,
      "Ġfilter": 2543,
      "itamin": 2544,
      "ers": 2545,
      "ertif": 2546,
      "Ġparafrase": 2547,
      "Ġperbedaan": 2548,
      "andingkan": 2549,
      "esok": 2550,
      "Ġbadan": 2551,
      "ĠðŁĺ": 2552,
      "ank": 2553,
      "Ġmenyerap": 2554,
      "Ġteknis": 2555,
      "anye": 2556,
      "Ġkebutuhan": 2557,
      "ee": 2558,
      "imbangan": 2559,
      "Ġprogr": 2560,
      "Ġtempel": 2561,
      "eed": 2562,
      "str": 2563,
      "yrof": 2564,
      "Ġhampir": 2565,
      "umen": 2566,
      "yrofoam": 2567,
      "Ap": 2568,
      "yal": 2569,
      "apai": 2570,
      "Ġcup": 2571,
      "Ġhitung": 2572,
      "entil": 2573,
      "isah": 2574,
      "encana": 2575,
      "Ġterbuka": 2576,
      "Ġstrip": 2577,
      "ouble": 2578,
      "\"**": 2579,
      "ukur": 2580,
      "Ġberubah": 2581,
      "ern": 2582,
      "okol": 2583,
      "asinya": 2584,
      "Ġpasar": 2585,
      "ĠNg": 2586,
      "Ġmodel": 2587,
      "Ġkamar": 2588,
      "Ġab": 2589,
      "ura": 2590,
      "res": 2591,
      "ĠAC": 2592,
      "ĠAir": 2593,
      "iew": 2594,
      "ĠĊ": 2595,
      "ĠBagaimana": 2596,
      "Ġ16": 2597,
      "Ġlapis": 2598,
      "kohol": 2599,
      "ĠKira": 2600,
      "emprot": 2601,
      "Ġteman": 2602,
      "ĠStr": 2603,
      "ompok": 2604,
      "70": 2605,
      "Ġinter": 2606,
      ".\"*": 2607,
      "AK": 2608,
      "enger": 2609,
      "Ġfoil": 2610,
      "Ġekstrak": 2611,
      "OB": 2612,
      "bel": 2613,
      "Ġdiri": 2614,
      "ohon": 2615,
      "rap": 2616,
      "aha": 2617,
      "Ġdana": 2618,
      "ĠPen": 2619,
      "Ġpengen": 2620,
      "Ġsementara": 2621,
      "\"*": 2622,
      "uduk": 2623,
      "round": 2624,
      "iber": 2625,
      "Ġgelombang": 2626,
      "Ġkamera": 2627,
      "orsi": 2628,
      "ĠBerarti": 2629,
      "Ġdaya": 2630,
      "Ġhabis": 2631,
      "Ġbuatkan": 2632,
      "esional": 2633,
      "Ġed": 2634,
      "Ġlat": 2635,
      "Ġbertahap": 2636,
      "Ġlaw": 2637,
      "Ġgunting": 2638,
      "ein": 2639,
      "Ġ___": 2640,
      "Ġmenahan": 2641,
      "ĠNamun": 2642,
      "Yang": 2643,
      "ontal": 2644,
      "ĠĠĠĠĠĠĠĠĠĠĠĠĠĠĠĠ": 2645,
      "oriz": 2646,
      "Ġtambah": 2647,
      "Ġlembap": 2648,
      "put": 2649,
      "aktik": 2650,
      "Ġment": 2651,
      "egan": 2652,
      "Ġnama": 2653,
      "ema": 2654,
      "Ġgar": 2655,
      "Ġmerasa": 2656,
      "ĠKatanya": 2657,
      "bon": 2658,
      "ĠGo": 2659,
      "Ġdatang": 2660,
      "Ġkutipan": 2661,
      "Ġvariasi": 2662,
      "ĠCara": 2663,
      "ĠUl": 2664,
      "ĠFr": 2665,
      "less": 2666,
      "Ġbalik": 2667,
      "Ġnilai": 2668,
      "sp": 2669,
      "\".": 2670,
      "ogle": 2671,
      "Ġlumayan": 2672,
      "Ġoptimal": 2673,
      "orasi": 2674,
      "ampil": 2675,
      "entilasi": 2676,
      "omm": 2677,
      "Ġkontr": 2678,
      "IS": 2679,
      "ement": 2680,
      "Ġhilang": 2681,
      "ĠJuga": 2682,
      "14": 2683,
      "iz": 2684,
      "ĠAmbil": 2685,
      "Ġvolume": 2686,
      "uncinya": 2687,
      "Ġdrain": 2688,
      "anas": 2689,
      "Ġcu": 2690,
      "tasi": 2691,
      "unjuk": 2692,
      "Ġsobek": 2693,
      "Ġlonggar": 2694,
      "âĺ": 2695,
      "Ġbeban": 2696,
      "Ġnatural": 2697,
      "Ġfot": 2698,
      "egap": 2699,
      "agonal": 2700,
      "An": 2701,
      "Ġinci": 2702,
      "Ġsemakin": 2703,
      "Ġmanual": 2704,
      "Ġgrad": 2705,
      "eduh": 2706,
      "Ġstik": 2707,
      "aring": 2708,
      "Ġdih": 2709,
      "Ġkandang": 2710,
      "'s": 2711,
      "ias": 2712,
      "ersi": 2713,
      "ĠJep": 2714,
      "ign": 2715,
      "Ġpower": 2716,
      "ĠBP": 2717,
      "yek": 2718,
      "encer": 2719,
      "Ġtugas": 2720,
      "Ġlaptop": 2721,
      "Ġder": 2722,
      "ĠForm": 2723,
      "Ġserat": 2724,
      "Ġkosong": 2725,
      "Ġdapur": 2726,
      "Ġbre": 2727,
      "ĠPakai": 2728,
      "eel": 2729,
      "orizontal": 2730,
      "embus": 2731,
      "ifikasi": 2732,
      "fek": 2733,
      "Ġmenyebabkan": 2734,
      "Ġpresisi": 2735,
      "Ġbahkan": 2736,
      "Īâĸ": 2737,
      "urni": 2738,
      "ool": 2739,
      "ba": 2740,
      "Ġkode": 2741,
      "Ġpenjelasan": 2742,
      "enter": 2743,
      "ating": 2744,
      "Ġinvestasi": 2745,
      "Ġkeram": 2746,
      "Ġemas": 2747,
      "Ġbenang": 2748,
      "atikan": 2749,
      "Ġ18": 2750,
      "Ġtergantung": 2751,
      "ĠEh": 2752,
      "Ġhidup": 2753,
      "alist": 2754,
      "ĠWaktu": 2755,
      "?**": 2756,
      "aging": 2757,
      "ĠUS": 2758,
      "Ġserta": 2759,
      "ĠEm": 2760,
      "mi": 2761,
      "Ġen": 2762,
      "Ġbib": 2763,
      "ĠTanaman": 2764,
      "Ġorgan": 2765,
      "Ġunik": 2766,
      "Ġ21": 2767,
      "ros": 2768,
      "Ġvide": 2769,
      "ml": 2770,
      "Ġgl": 2771,
      "Ġkrusi": 2772,
      "âŃĲ": 2773,
      "Ġsay": 2774,
      "Ġdin": 2775,
      "Ġtes": 2776,
      "Ġkarya": 2777,
      "Ġmencegah": 2778,
      "Ġoil": 2779,
      "Ġsegera": 2780,
      "Ġprofesional": 2781,
      "aftar": 2782,
      "EK": 2783,
      "tivitas": 2784,
      "seperti": 2785,
      "aduh": 2786,
      "oard": 2787,
      "Ġimp": 2788,
      "ĠPem": 2789,
      "Ġsingkat": 2790,
      "etes": 2791,
      "Ġcuci": 2792,
      "Ġbilas": 2793,
      "abung": 2794,
      "io": 2795,
      "sc": 2796,
      "Ġkas": 2797,
      "Ġpew": 2798,
      "Ġrec": 2799,
      "jek": 2800,
      "Ġex": 2801,
      "Ġkrusial": 2802,
      "ihan": 2803,
      "Ġframe": 2804,
      "Ġlepas": 2805,
      "Ġwh": 2806,
      "aiki": 2807,
      "ere": 2808,
      "ĠKe": 2809,
      "Ġtingkat": 2810,
      "ĠMemb": 2811,
      "Ġoranye": 2812,
      "Ġtambahkan": 2813,
      "istik": 2814,
      "esuaikan": 2815,
      "ĠSama": 2816,
      "Ġfigure": 2817,
      "Ġmengal": 2818,
      "ĠKetiga": 2819,
      "AP": 2820,
      "Ġubah": 2821,
      "engkung": 2822,
      "Ġmakanan": 2823,
      "kulasi": 2824,
      "Ġgrow": 2825,
      "Ġneg": 2826,
      "ost": 2827,
      "Ġbebas": 2828,
      "Ġsul": 2829,
      "ular": 2830,
      "Ġperubahan": 2831,
      "ĠWaduh": 2832,
      "Ġdisarankan": 2833,
      "Ġorig": 2834,
      "quarium": 2835,
      "Ġdeb": 2836,
      "Ġcache": 2837,
      "Ġsore": 2838,
      "Coba": 2839,
      "erat": 2840,
      "ĠMan": 2841,
      "Ġnger": 2842,
      "Ġlingkaran": 2843,
      "ĠPotong": 2844,
      "gus": 2845,
      "ĠMerek": 2846,
      "Ġtantangan": 2847,
      "Ġkasar": 2848,
      "Ġkayaknya": 2849,
      "gelangan": 2850,
      "ĠHenna": 2851,
      "Ġsekaligus": 2852,
      "ektor": 2853,
      "ina": 2854,
      "Ġmeningkatkan": 2855,
      "ĠBanyak": 2856,
      "Ġkhas": 2857,
      "Ġ~": 2858,
      "Ġanalisis": 2859,
      "ior": 2860,
      "asakan": 2861,
      "lash": 2862,
      "Ġintern": 2863,
      "ĠKedua": 2864,
      "atch": 2865,
      "intage": 2866,
      "ĠSelain": 2867,
      "Ġpusing": 2868,
      "Ġmurni": 2869,
      "ĠðŁĶ": 2870,
      "Ġsemprot": 2871,
      "Ġsukulen": 2872,
      "ĠUn": 2873,
      "psi": 2874,
      "Ġkim": 2875,
      "Ġpertumbuhan": 2876,
      "osok": 2877,
      "Ġbubuk": 2878,
      "ĠKenapa": 2879,
      "abut": 2880,
      "Ġbeeswax": 2881,
      "Ġkotor": 2882,
      "ĠCari": 2883,
      "ody": 2884,
      "%.": 2885,
      "Ġlanc": 2886,
      "antik": 2887,
      "ĠUV": 2888,
      "Ġteh": 2889,
      "onsai": 2890,
      "Ġlarutan": 2891,
      "Ġmenguning": 2892,
      "Ġwajah": 2893,
      "Ġau": 2894,
      "orit": 2895,
      "ĠCampur": 2896,
      "sinya": 2897,
      "teril": 2898,
      "Kalau": 2899,
      "oga": 2900,
      "Ġjual": 2901,
      "Ġbaking": 2902,
      "minyak": 2903,
      "Ġbegitu": 2904,
      "ĠKol": 2905,
      "indahkan": 2906,
      "enderung": 2907,
      "!)": 2908,
      "Ġia": 2909,
      "Ġlight": 2910,
      "itasi": 2911,
      "Ġjangka": 2912,
      "usinya": 2913,
      "Ġutamanya": 2914,
      "ĠSK": 2915,
      "ometer": 2916,
      "ersih": 2917,
      "ĠCukup": 2918,
      "Ġsimpel": 2919,
      "Ġcairan": 2920,
      "pen": 2921,
      "Ġbut": 2922,
      "Ġprem": 2923,
      "Ġukur": 2924,
      "ĠUkuran": 2925,
      "200": 2926,
      "Ġsusu": 2927,
      "sel": 2928,
      "udahan": 2929,
      "Ġberc": 2930,
      "Ġbergerak": 2931,
      "ĠGoogle": 2932,
      "Ġkaret": 2933,
      "ĠIntinya": 2934,
      "Ġcenderung": 2935,
      "Ġberp": 2936,
      "uhi": 2937,
      "Ġsetengah": 2938,
      "Ġlayar": 2939,
      "jangan": 2940,
      "embang": 2941,
      "Ġbekerja": 2942,
      "epit": 2943,
      "ongga": 2944,
      "Ġmelengkung": 2945,
      "ix": 2946,
      "ubung": 2947,
      "Ġkatanya": 2948,
      "Ġnoda": 2949,
      "Ġmengalir": 2950,
      "una": 2951,
      "Ġgoyang": 2952,
      "ĠBaik": 2953,
      "Ġ200": 2954,
      "urnal": 2955,
      "Ġdaftar": 2956,
      "ĠBeberapa": 2957,
      "ipl": 2958,
      "Ġkeping": 2959,
      "Ġuji": 2960,
      "ĠTambahkan": 2961,
      "Ġsebaiknya": 2962,
      "Ġsuper": 2963,
      "Ġtiga": 2964,
      "Ġmesk": 2965,
      "ĠRingkasannya": 2966,
      "Ġram": 2967,
      "ongk": 2968,
      "Ġpraktik": 2969,
      "anel": 2970,
      "uruf": 2971,
      "====": 2972,
      "Ġungg": 2973,
      "Total": 2974,
      "down": 2975,
      "Ġsy": 2976,
      "udnya": 2977,
      "ĠSelamat": 2978,
      "ker": 2979,
      "eimbangan": 2980,
      "alanan": 2981,
      "Ġcelah": 2982,
      "langkahnya": 2983,
      "Ġam": 2984,
      "Ġlainnya": 2985,
      "Ġuang": 2986,
      "ĠSon": 2987,
      "masuk": 2988,
      "erensi": 2989,
      "eleh": 2990,
      "Ġrem": 2991,
      "Ġcuaca": 2992,
      "isinya": 2993,
      "Minggu": 2994,
      "Ġmet": 2995,
      "ĠBisakah": 2996,
      "ĠHasilnya": 2997,
      "ĠKem": 2998,
      "ĠHarga": 2999,
      "Ġare": 3000,
      "ĠSolusi": 3001,
      "utkan": 3002,
      "uransi": 3003,
      "Ġmenulis": 3004,
      "ota": 3005,
      "Ġmengeras": 3006,
      "Ġdigunakan": 3007,
      "sek": 3008,
      "Ġsikat": 3009,
      "Ġtabel": 3010,
      "Ġberhenti": 3011,
      "ĠĠĠĠĠ": 3012,
      "iptakan": 3013,
      "ye": 3014,
      "Ġbagi": 3015,
      "ĠTepat": 3016,
      "ipas": 3017,
      "Ġdrainase": 3018,
      "Solusi": 3019,
      "elat": 3020,
      "ĠðŁİ": 3021,
      "Ġmirip": 3022,
      "ĠPemb": 3023,
      "Ġzine": 3024,
      "St": 3025,
      "edakan": 3026,
      "**ðŁĵ": 3027,
      "Aku": 3028,
      "gsm": 3029,
      "Ġlun": 3030,
      "Ġproyek": 3031,
      "Ġsoalnya": 3032,
      "Ġmasukkan": 3033,
      "Ġteduh": 3034,
      "Ġfull": 3035,
      "Ġevaluasi": 3036,
      "Ġkimia": 3037,
      "Ġdemi": 3038,
      "Ġbesok": 3039,
      "Ġterm": 3040,
      "se": 3041,
      "Ġselalu": 3042,
      "ayangkan": 3043,
      "Ġpusat": 3044,
      "insip": 3045,
      "Wah": 3046,
      "|----": 3047,
      "ĠPad": 3048,
      "ĪâĸĪâĸ": 3049,
      "ise": 3050,
      "erah": 3051,
      "Ġkapas": 3052,
      "Ġsenang": 3053,
      "Ġsulit": 3054,
      "Ġbilah": 3055,
      "Ġpindah": 3056,
      ")**:": 3057,
      "emur": 3058,
      "Ġvideo": 3059,
      "ungkinan": 3060,
      "Ġperbandingan": 3061,
      "Jangan": 3062,
      "alahan": 3063,
      "Ġle": 3064,
      "oksid": 3065,
      "Ġlembar": 3066,
      "Ġsensitif": 3067,
      "ĠSc": 3068,
      "ecah": 3069,
      "ground": 3070,
      "Ġpis": 3071,
      "ĠTotal": 3072,
      "impanan": 3073,
      "Ġkonten": 3074,
      "fum": 3075,
      "Ġbersama": 3076,
      "erl": 3077,
      "ator": 3078,
      "ipsi": 3079,
      "Ġkesehatan": 3080,
      "Ġir": 3081,
      "unan": 3082,
      "ĠMem": 3083,
      "endron": 3084,
      "odendron": 3085,
      "Ġpanel": 3086,
      "hilodendron": 3087,
      "GB": 3088,
      "Ġbet": 3089,
      "Ġapalagi": 3090,
      "Ġdiamkan": 3091,
      "âĢ": 3092,
      "ahayaan": 3093,
      "itrat": 3094,
      "hone": 3095,
      "adangan": 3096,
      "Ġcur": 3097,
      "Ġhama": 3098,
      "Ġartinya": 3099,
      "utuhkan": 3100,
      "ĠZona": 3101,
      "Ġmulus": 3102,
      "Ġkombinasi": 3103,
      "Ġcover": 3104,
      "ĠSatu": 3105,
      "ĠSkor": 3106,
      "eluar": 3107,
      "ancang": 3108,
      "iraman": 3109,
      "entar": 3110,
      "obil": 3111,
      "ID": 3112,
      "ON": 3113,
      "ecil": 3114,
      "sed": 3115,
      "esain": 3116,
      "agraf": 3117,
      "Ġvintage": 3118,
      "Ġberikutnya": 3119,
      "Ġhead": 3120,
      "ida": 3121,
      "Penyebab": 3122,
      "bisa": 3123,
      "utama": 3124,
      "mentasi": 3125,
      "onya": 3126,
      "Ġbakteri": 3127,
      "arm": 3128,
      "ĠNanti": 3129,
      "iba": 3130,
      "Ġdibanding": 3131,
      "to": 3132,
      "Ġalkohol": 3133,
      "Ġdebu": 3134,
      "eran": 3135,
      "ĠKertas": 3136,
      "ĠPak": 3137,
      "Ġventilasi": 3138,
      "bum": 3139,
      "Ġmatang": 3140,
      "man": 3141,
      "Ġprop": 3142,
      "Ġpop": 3143,
      "ĠPar": 3144,
      "Ġport": 3145,
      "Ġfoam": 3146,
      "Ġgaram": 3147,
      "ear": 3148,
      "Ġsoft": 3149,
      "Ġberi": 3150,
      "uap": 3151,
      "Ġcap": 3152,
      "ench": 3153,
      "Ġkom": 3154,
      "Ġtertutup": 3155,
      "Ġbaju": 3156,
      "Ġnamanya": 3157,
      "Ġberisi": 3158,
      "antian": 3159,
      "ov": 3160,
      "Ġpasang": 3161,
      "ahun": 3162,
      "Ġsdm": 3163,
      "Ġpembaca": 3164,
      "150": 3165,
      "ff": 3166,
      "Ġhuruf": 3167,
      "Ġkeh": 3168,
      "Ġgratis": 3169,
      "Ġsiram": 3170,
      "ASI": 3171,
      "Ġsurat": 3172,
      "ĠAc": 3173,
      "Ġstrateg": 3174,
      "Ġkg": 3175,
      "eku": 3176,
      "ider": 3177,
      "ĠBagus": 3178,
      "ĠEfek": 3179,
      "erakan": 3180,
      "obot": 3181,
      "Ġcantik": 3182,
      "Ġmenciptakan": 3183,
      "ĠPadahal": 3184,
      "ĠPeng": 3185,
      "enya": 3186,
      "obe": 3187,
      "ĠðŁĵ": 3188,
      ">**": 3189,
      "Ġbonsai": 3190,
      "ĠKnot": 3191,
      "---|--------": 3192,
      "Ġtegak": 3193,
      "Setelah": 3194,
      "Ġsis": 3195,
      "Ġbulat": 3196,
      "ange": 3197,
      "Ġmembersihkan": 3198,
      "bi": 3199,
      "ition": 3200,
      "Ġrev": 3201,
      "ĠSangat": 3202,
      "angkum": 3203,
      "Ġvitamin": 3204,
      "etral": 3205,
      "Ġikut": 3206,
      "ary": 3207,
      "itor": 3208,
      "ampak": 3209,
      "ĠFase": 3210,
      "Ġlembek": 3211,
      "90": 3212,
      "umpul": 3213,
      "Ġbesi": 3214,
      "Ġcan": 3215,
      "Ġsarankan": 3216,
      "ble": 3217,
      "Ġdosis": 3218,
      "ime": 3219,
      "urutan": 3220,
      "Ġskenario": 3221,
      "ease": 3222,
      "sh": 3223,
      "Ġragu": 3224,
      "Ġfleksi": 3225,
      "aterial": 3226,
      "Ġjaringan": 3227,
      "Ġlengket": 3228,
      "%,": 3229,
      "ajak": 3230,
      "Ġdokter": 3231,
      "Ġsign": 3232,
      "Ġkap": 3233,
      "oss": 3234,
      "Ada": 3235,
      "Ġpip": 3236,
      "Ġtekan": 3237,
      "ester": 3238,
      "Ġunggul": 3239,
      "ĠQ": 3240,
      "itungan": 3241,
      "Ġefisi": 3242,
      "Ġlari": 3243,
      "Ġterkena": 3244,
      "inan": 3245,
      "ompat": 3246,
      "Ġpergelangan": 3247,
      "elamat": 3248,
      "usan": 3249,
      "ĠOk": 3250,
      "Ġsemen": 3251,
      "Ġantagonis": 3252,
      "unggung": 3253,
      "Ġli": 3254,
      "tua": 3255,
      "ikiran": 3256,
      "Ġperk": 3257,
      "Ġotot": 3258,
      "Ġlumut": 3259,
      "urkan": 3260,
      "enarik": 3261,
      "ĠJar": 3262,
      "Ġsini": 3263,
      "Ġluas": 3264,
      "ĠFokus": 3265,
      "Ġtipe": 3266,
      "lasik": 3267,
      "Ġekstra": 3268,
      "Ġsirkulasi": 3269,
      "ĠORP": 3270,
      "Tepat": 3271,
      "usakan": 3272,
      "iting": 3273,
      "Ġpasir": 3274,
      "ĠBiaya": 3275,
      "Latihan": 3276,
      "Ġklasik": 3277,
      "usnya": 3278,
      "Ġberlebihan": 3279,
      "Ġdokumen": 3280,
      "45": 3281,
      "Al": 3282,
      "ĠSaran": 3283,
      "Ġ13": 3284,
      "Ġfaktor": 3285,
      "Ġbawang": 3286,
      "Ġresmi": 3287,
      "book": 3288,
      "ganya": 3289,
      "bak": 3290,
      "iang": 3291,
      "lop": 3292,
      "ukung": 3293,
      "uda": 3294,
      "Ġdenger": 3295,
      "angkal": 3296,
      "Ġemosi": 3297,
      "Ġdapet": 3298,
      "Ġrenang": 3299,
      "angku": 3300,
      "anggu": 3301,
      "Ġtest": 3302,
      "ĠBah": 3303,
      "ĠKon": 3304,
      "ibadi": 3305,
      "Ġjumlah": 3306,
      "Ġhorizontal": 3307,
      "entrasi": 3308,
      "opak": 3309,
      "Ġseri": 3310,
      "ĠMasukkan": 3311,
      "ukti": 3312,
      "Ġkeamanan": 3313,
      "Ġorganik": 3314,
      "ĠEks": 3315,
      "Ġhemat": 3316,
      "eral": 3317,
      "Ġpiring": 3318,
      "ĠDalam": 3319,
      "ĠAnt": 3320,
      "oor": 3321,
      "Ġinst": 3322,
      "su": 3323,
      "omba": 3324,
      "Ġsiang": 3325,
      "ier": 3326,
      "enal": 3327,
      "Ġpal": 3328,
      "Ġdaunnya": 3329,
      "Ġkatun": 3330,
      "Ġterpisah": 3331,
      "Ġpadat": 3332,
      "pro": 3333,
      "Ġtiba": 3334,
      "unaan": 3335,
      "anggal": 3336,
      "Ġberdiri": 3337,
      "Oke": 3338,
      "Ġmenurutmu": 3339,
      "tiba": 3340,
      "IR": 3341,
      "Ġdatar": 3342,
      "Ġbintang": 3343,
      "Ġ28": 3344,
      "Ġik": 3345,
      "ajat": 3346,
      "acam": 3347,
      "iral": 3348,
      "Ġsempit": 3349,
      "Ġdeskr": 3350,
      "we": 3351,
      "asio": 3352,
      "Ġkemungkinan": 3353,
      "Ġderajat": 3354,
      "US": 3355,
      "Ġkontras": 3356,
      "entukan": 3357,
      "Ġbank": 3358,
      "Ġkelebihan": 3359,
      "Ġsm": 3360,
      "Ġkuas": 3361,
      "Ġgagal": 3362,
      "Ġpun": 3363,
      "isme": 3364,
      "Ġfung": 3365,
      "Ġflash": 3366,
      "paran": 3367,
      "ahannya": 3368,
      "ANGAN": 3369,
      "eal": 3370,
      "pet": 3371,
      "Ġtuh": 3372,
      "utut": 3373,
      "Ġmawar": 3374,
      "Ġcas": 3375,
      "Ġperj": 3376,
      "ioritas": 3377,
      "OT": 3378,
      "hasil": 3379,
      "Ġsolusi": 3380,
      "tan": 3381,
      "ermentasi": 3382,
      "Ġge": 3383,
      "roponik": 3384,
      "Ġcetak": 3385,
      "te": 3386,
      "Ġener": 3387,
      "Ġformula": 3388,
      "ekomendasikan": 3389,
      "Ġdid": 3390,
      "Ġemb": 3391,
      "ĠCaranya": 3392,
      "ambung": 3393,
      "Ġkritis": 3394,
      "Ġsiku": 3395,
      "Ġpill": 3396,
      "uter": 3397,
      "irus": 3398,
      "Ġharganya": 3399,
      "OV": 3400,
      "uler": 3401,
      "ĠðŁŁ": 3402,
      "24": 3403,
      "imasi": 3404,
      "ĠðŁĴ": 3405,
      "ĠEmang": 3406,
      "intik": 3407,
      "ĠSesi": 3408,
      "Sekarang": 3409,
      "UL": 3410,
      "ner": 3411,
      "tidak": 3412,
      "Ġkarton": 3413,
      "EM": 3414,
      "Ġdaging": 3415,
      "Rekomendasi": 3416,
      "ne": 3417,
      "ĠBilas": 3418,
      "Ġpohon": 3419,
      "Ġ22": 3420,
      "ĠYa": 3421,
      "Ġsimpan": 3422,
      "ĠSebelum": 3423,
      "ress": 3424,
      "Ġtas": 3425,
      "Ġroda": 3426,
      "ĠKes": 3427,
      "Ġresep": 3428,
      "Ġangkat": 3429,
      "Ġkapan": 3430,
      "ensitas": 3431,
      "erv": 3432,
      "Ġmah": 3433,
      "Ġmelipat": 3434,
      "Ġawet": 3435,
      "warna": 3436,
      "Ġlo": 3437,
      "Ġcond": 3438,
      "awanc": 3439,
      "angkau": 3440,
      "rol": 3441,
      "ĠPot": 3442,
      "reen": 3443,
      "older": 3444,
      "Ġbayar": 3445,
      "ĠTuang": 3446,
      "Ġsumber": 3447,
      "Ġlagu": 3448,
      "Ġberj": 3449,
      "likasikan": 3450,
      "Ġemp": 3451,
      "Ġberminyak": 3452,
      "eck": 3453,
      "Ġkantong": 3454,
      "ĠAs": 3455,
      "Ġterutama": 3456,
      "erasi": 3457,
      "Ġsteril": 3458,
      "Ġpack": 3459,
      "ĠBl": 3460,
      "Ġmanfaat": 3461,
      "Ġno": 3462,
      "ogs": 3463,
      "atering": 3464,
      "Ġdrastis": 3465,
      "Ġbertahan": 3466,
      "Ġmemulai": 3467,
      "onom": 3468,
      "ĠRes": 3469,
      "erg": 3470,
      "Ġjawaban": 3471,
      "ĠMeng": 3472,
      "Ġtranslate": 3473,
      "Ġberlebih": 3474,
      "Men": 3475,
      "Ġcampur": 3476,
      "iction": 3477,
      "Ġrb": 3478,
      "ambungan": 3479,
      "ingkai": 3480,
      "Ġcerit": 3481,
      "Ġ11": 3482,
      "Ġkawat": 3483,
      "Ġmengikuti": 3484,
      "nam": 3485,
      "ĠKeren": 3486,
      "cogs": 3487,
      "tk": 3488,
      "Ġgini": 3489,
      "rik": 3490,
      "Ġpress": 3491,
      "ĠBahan": 3492,
      "Ġgoresan": 3493,
      "Ġkend": 3494,
      "ĠAtur": 3495,
      "ĊĠĠĠ": 3496,
      "ĠSonobe": 3497,
      "Ġbunyi": 3498,
      "Ġmed": 3499,
      "Ġfase": 3500,
      "Ġmaster": 3501,
      "Ġtunggu": 3502,
      "Ġbatas": 3503,
      "awancara": 3504,
      "Ġpunggung": 3505,
      "Ġkateg": 3506,
      "ps": 3507,
      "uch": 3508,
      "iklus": 3509,
      "orang": 3510,
      "ĠKep": 3511,
      "Ġmikro": 3512,
      "isida": 3513,
      "urangan": 3514,
      "Ġ___/": 3515,
      "jol": 3516,
      "ikil": 3517,
      "Ġmenghadap": 3518,
      "Ġsimulasi": 3519,
      "eluarkan": 3520,
      "Ġsadar": 3521,
      "Ġkeseimbangan": 3522,
      "Ġskala": 3523,
      "Kamu": 3524,
      "tom": 3525,
      "Ġbis": 3526,
      "ole": 3527,
      "aji": 3528,
      "ĠBeri": 3529,
      "Ġso": 3530,
      "Ġhias": 3531,
      "ĠLangsung": 3532,
      "ahanan": 3533,
      "pelan": 3534,
      "alui": 3535,
      "anen": 3536,
      "Ġtulang": 3537,
      "Ġletakkan": 3538,
      "olasi": 3539,
      "ĠCatat": 3540,
      "Ġfav": 3541,
      "ĠCan": 3542,
      "entasi": 3543,
      "Ġtahap": 3544,
      "ukuran": 3545,
      "Ġpenyimpanan": 3546,
      "Ġamplop": 3547,
      "idol": 3548,
      "ĠLatihan": 3549,
      "egangan": 3550,
      "Ġdipotong": 3551,
      "arket": 3552,
      "Ġmuda": 3553,
      "iling": 3554,
      "ĠThe": 3555,
      "Ġpenyiraman": 3556,
      "tul": 3557,
      "olor": 3558,
      "Ġmot": 3559,
      "Ġout": 3560,
      "ĠLanjut": 3561,
      "ibat": 3562,
      "rofiber": 3563,
      "âĨĴ": 3564,
      "Ġred": 3565,
      "ĠMbak": 3566,
      "aki": 3567,
      "Ġmengering": 3568,
      "ĠJam": 3569,
      "Ġmemastikan": 3570,
      "Ġmegap": 3571,
      "Ġril": 3572,
      "Ġtermasuk": 3573,
      "Ġring": 3574,
      "siapan": 3575,
      "Ġkuliah": 3576,
      "ĠUSB": 3577,
      "|---|---|": 3578,
      "Ġcab": 3579,
      "Ġrobek": 3580,
      "oo": 3581,
      "',": 3582,
      "erm": 3583,
      "endah": 3584,
      "cl": 3585,
      "75": 3586,
      "Ġkaya": 3587,
      "amis": 3588,
      "Ġget": 3589,
      "Ġmakasih": 3590,
      "Ġkokoh": 3591,
      "Ġlead": 3592,
      "Ġgun": 3593,
      "Ġmasa": 3594,
      "âķĳ": 3595,
      "erbaiki": 3596,
      "Ġmisal": 3597,
      "Ġsemb": 3598,
      "Ġfavorit": 3599,
      "Ġkej": 3600,
      "Ġwrap": 3601,
      "ĠMaks": 3602,
      "ET": 3603,
      "Ġsaku": 3604,
      "Ġbur": 3605,
      "tuju": 3606,
      "etis": 3607,
      "aban": 3608,
      "Ġselang": 3609,
      "board": 3610,
      "ekuk": 3611,
      "Ġjah": 3612,
      "Ġcharg": 3613,
      "Ġopsi": 3614,
      "ersihkan": 3615,
      "omod": 3616,
      "Kel": 3617,
      "Ġencer": 3618,
      "Ġdiam": 3619,
      "ĠMenarik": 3620,
      "ucuk": 3621,
      "Ġsilica": 3622,
      "Ġlokal": 3623,
      "ĠSimpan": 3624,
      "agram": 3625,
      "Ġpembersih": 3626,
      "Ġkonsep": 3627,
      "Ġbibit": 3628,
      "Ġduduk": 3629,
      "Ġlutut": 3630,
      "ðŁĶ": 3631,
      "ift": 3632,
      "Ġsal": 3633,
      "Ġkirim": 3634,
      "Ġmencoba": 3635,
      "leks": 3636,
      "arannya": 3637,
      "Ġmelalui": 3638,
      "ĠTrans": 3639,
      "NI": 3640,
      "iatan": 3641,
      "erhatikan": 3642,
      "Ġobat": 3643,
      "artemen": 3644,
      "Ġtun": 3645,
      "isu": 3646,
      "**â": 3647,
      "ĠPertanyaan": 3648,
      "ucat": 3649,
      "Ġmemory": 3650,
      "ake": 3651,
      "Ġindigo": 3652,
      "Ġpo": 3653,
      "Siap": 3654,
      "Ġpek": 3655,
      "Ġlomba": 3656,
      "Ġmenyus": 3657,
      "Ġges": 3658,
      "ĠBapak": 3659,
      "anjutnya": 3660,
      "omodoro": 3661,
      "DS": 3662,
      "eksa": 3663,
      "ĠKayaknya": 3664,
      "OR": 3665,
      "Ġqu": 3666,
      "Ġkor": 3667,
      "ĠBudget": 3668,
      "acc": 3669,
      "ujuan": 3670,
      "Ġyou": 3671,
      "Ġbor": 3672,
      "ĠRot": 3673,
      "ache": 3674,
      "Ġmenyentuh": 3675,
      "Ġdilipat": 3676,
      "ĠUlangi": 3677,
      "Ġperjalanan": 3678,
      "PK": 3679,
      "Ġph": 3680,
      "Ġbayangan": 3681,
      "ĠJepang": 3682,
      "TP": 3683,
      "irm": 3684,
      "Ġpintu": 3685,
      "der": 3686,
      "Ġtangga": 3687,
      "ES": 3688,
      "Pro": 3689,
      "Ġeng": 3690,
      "sekitar": 3691,
      "Ġbox": 3692,
      "Ġmobil": 3693,
      "Ġdibuat": 3694,
      "Ġsebentar": 3695,
      "Ġalternatif": 3696,
      "anceng": 3697,
      "Ġsumbu": 3698,
      "Ġramah": 3699,
      "IT": 3700,
      "atat": 3701,
      "Ġtransparan": 3702,
      "Ġpencahayaan": 3703,
      "ĠSemprot": 3704,
      "ðŁĵ": 3705,
      "ĠDiamkan": 3706,
      "ampilan": 3707,
      "UR": 3708,
      "Ġpant": 3709,
      "Ġsetuju": 3710,
      "ekuensi": 3711,
      "Ġenergi": 3712,
      "Ġsaling": 3713,
      "Ġgam": 3714,
      "olah": 3715,
      "Ġdetailnya": 3716,
      "Ġmingguan": 3717,
      "ĠðŁı": 3718,
      "sone": 3719,
      "ĠKek": 3720,
      "Ġasuransi": 3721,
      "Ġaneh": 3722,
      "anks": 3723,
      "Ġjawab": 3724,
      "angkap": 3725,
      "uju": 3726,
      "oles": 3727,
      "ĠKayu": 3728,
      "Ġempuk": 3729,
      "jur": 3730,
      "awan": 3731,
      "Ġpucat": 3732,
      "Ġkerusakan": 3733,
      "Ġparagraf": 3734,
      "Ġkonsentrasi": 3735,
      "Ġwave": 3736,
      "ĠBaru": 3737,
      "ĠSedang": 3738,
      "Seb": 3739,
      "Ġsertif": 3740,
      "Ġpegang": 3741,
      "asaan": 3742,
      "unia": 3743,
      "Ġputus": 3744,
      "ave": 3745,
      "let": 3746,
      "Ġjati": 3747,
      "Ġdo": 3748,
      "ĠTDS": 3749,
      "aba": 3750,
      "ĠGanti": 3751,
      "ĠUd": 3752,
      "Ġfleksibel": 3753,
      "kon": 3754,
      "unout": 3755,
      "Ġkelembaban": 3756,
      "Ġtuang": 3757,
      "ĠOles": 3758,
      "Ġmerawat": 3759,
      "Ġtelur": 3760,
      "Ġbegini": 3761,
      "Tapi": 3762,
      "kat": 3763,
      "abu": 3764,
      "Ġkeliatan": 3765,
      "Ġtransisi": 3766,
      "Ġyour": 3767,
      "onan": 3768,
      "Ġadap": 3769,
      "Ġpadahal": 3770,
      "alitas": 3771,
      "ĠPV": 3772,
      "inder": 3773,
      "Ġingat": 3774,
      "embung": 3775,
      "Saya": 3776,
      "lalu": 3777,
      "Ġkaf": 3778,
      "UN": 3779,
      "ĠSudah": 3780,
      "Ġselanjutnya": 3781,
      "Ġjer": 3782,
      "Ġgem": 3783,
      "ĠPhilodendron": 3784,
      "ĠPerb": 3785,
      "Ġkoleksi": 3786,
      "ĠTerb": 3787,
      "Ġpelep": 3788,
      "ĠOrang": 3789,
      "Ġkipas": 3790,
      "Ġpig": 3791,
      "Ġekstrem": 3792,
      "Ġbayi": 3793,
      "olak": 3794,
      "ĠMantap": 3795,
      "Ġfiction": 3796,
      "Ġdibuka": 3797,
      "Ġsensor": 3798,
      "ologi": 3799,
      "âŃĲâŃĲ": 3800,
      "Ar": 3801,
      "ĠTangan": 3802,
      "Ġluka": 3803,
      "ulau": 3804,
      "utih": 3805,
      "Ġnetral": 3806,
      "Ġformat": 3807,
      "ĠMenurutmu": 3808,
      "Ġtape": 3809,
      "ĠBotol": 3810,
      "ĠInst": 3811,
      "Ġmemutar": 3812,
      "Ġpentingnya": 3813,
      "Ġlaporan": 3814,
      "Ġparfum": 3815,
      "Ġseimbang": 3816,
      "Ġprotokol": 3817,
      "Ġpinggir": 3818,
      "The": 3819,
      "Ġkategori": 3820,
      "âĿĮ": 3821,
      "Ġart": 3822,
      "Ġjujur": 3823,
      "ĠBahasa": 3824,
      "%)": 3825,
      "Ġklik": 3826,
      "Ġjurnal": 3827,
      "uatu": 3828,
      "Ġarang": 3829,
      "Ġscan": 3830,
      "ĠUnit": 3831,
      "Ġdunia": 3832,
      "ores": 3833,
      "ĠMasalah": 3834,
      "ejala": 3835,
      "Ġdek": 3836,
      "enom": 3837,
      "odc": 3838,
      "Ġmeski": 3839,
      "co": 3840,
      "ulung": 3841,
      "etris": 3842,
      "Dengan": 3843,
      "PE": 3844,
      "ĠYuk": 3845,
      "engaruhi": 3846,
      "Ġelemen": 3847,
      "etika": 3848,
      "Ġmenyala": 3849,
      "Ġdada": 3850,
      "Ġthat": 3851,
      "aper": 3852,
      "ĠSiram": 3853,
      "Ġmembedakan": 3854,
      "Ġmencapai": 3855,
      "ber": 3856,
      "okan": 3857,
      "Ġkuku": 3858,
      "ams": 3859,
      "Ġminim": 3860,
      "Ġketer": 3861,
      "Ġlac": 3862,
      "urt": 3863,
      "Ġterbakar": 3864,
      "Ġpercaya": 3865,
      "ĠBukan": 3866,
      "Ġ300": 3867,
      "Ġany": 3868,
      "ĲâķĲâķĲâķĲâķĲâķĲâķ": 3869,
      "Ġistilah": 3870,
      "ĠLipat": 3871,
      "grek": 3872,
      "Ġinform": 3873,
      "Ġoles": 3874,
      "iti": 3875,
      "Ġfree": 3876,
      "Ġpengel": 3877,
      "meng": 3878,
      "rom": 3879,
      "sil": 3880,
      "Ġnulis": 3881,
      "Ġfurn": 3882,
      "Ġstep": 3883,
      "grade": 3884,
      "Ġproduksi": 3885,
      "35": 3886,
      "Ġmon": 3887,
      "Ġterc": 3888,
      "tip": 3889,
      "Ġbiji": 3890,
      "Ġbedah": 3891,
      "Ġkekuatan": 3892,
      "Buat": 3893,
      "Kes": 3894,
      "Ġ____": 3895,
      "ĠBeg": 3896,
      "ĠDI": 3897,
      "ĠNo": 3898,
      "Ġprofil": 3899,
      "oast": 3900,
      "ajib": 3901,
      "Ġkerikil": 3902,
      "Ġkeber": 3903,
      "Ġmenuang": 3904,
      "Ġatur": 3905,
      "ĠBersihkan": 3906,
      "ulitan": 3907,
      "Ġscr": 3908,
      "accato": 3909,
      "Ġmemegang": 3910,
      "ence": 3911,
      "her": 3912,
      "load": 3913,
      "wana": 3914,
      "ĠKasih": 3915,
      "ropis": 3916,
      "Ġdurasi": 3917,
      "kas": 3918,
      "Ġcermin": 3919,
      "ĠSemua": 3920,
      "ĠDiscogs": 3921,
      "Ġgradasi": 3922,
      "Ġpekat": 3923,
      "Ġstrategi": 3924,
      "ħâĺ": 3925,
      "arth": 3926,
      "Ġperak": 3927,
      "read": 3928,
      "undur": 3929,
      "ĠMenurut": 3930,
      "Ġpenggaris": 3931,
      "Ġdrop": 3932,
      "Ġaturan": 3933,
      "abar": 3934,
      "istrib": 3935,
      "enomena": 3936,
      "16": 3937,
      "Opsi": 3938,
      "urasi": 3939,
      "Ġprioritas": 3940,
      "Ġsana": 3941,
      "Ġditer": 3942,
      "Ġlogbook": 3943,
      "Ġdeskripsi": 3944,
      "Ġbus": 3945,
      "apis": 3946,
      "Ġakurat": 3947,
      "ilihan": 3948,
      "Ġresp": 3949,
      "ĠKadang": 3950,
      "ĠPl": 3951,
      "Ġbakar": 3952,
      "play": 3953,
      "Ġobjek": 3954,
      "ĠSol": 3955,
      "ĠBayangkan": 3956,
      "Ġlancar": 3957,
      "ecek": 3958,
      "Ġfile": 3959,
      "Ġsulam": 3960,
      "PU": 3961,
      "Per": 3962,
      "ask": 3963,
      "Ġmenger": 3964,
      "Ġjahitan": 3965,
      "Meng": 3966,
      "Ġcadangan": 3967,
      "sia": 3968,
      "ge": 3969,
      "tudi": 3970,
      "Ġjeda": 3971,
      "ikator": 3972,
      "Ġkental": 3973,
      "ĠKec": 3974,
      "Ġberf": 3975,
      "Ġbern": 3976,
      "enturan": 3977,
      "Ġangg": 3978,
      "untuk": 3979,
      "eline": 3980,
      "ĠSil": 3981,
      "Fase": 3982,
      "udar": 3983,
      "uji": 3984,
      "Ġkeramik": 3985,
      "ĠOleskan": 3986,
      "Ġbangku": 3987,
      "Ġcut": 3988,
      "Ġfermentasi": 3989,
      "Ġalbum": 3990,
      "Ġberbagai": 3991,
      "Sem": 3992,
      "Ġkm": 3993,
      "ombol": 3994,
      "Do": 3995,
      "ĠDiagonal": 3996,
      "Ġkompos": 3997,
      "Ġrelease": 3998,
      "Ġ___/__": 3999,
      "Ġrongga": 4000,
      "Ġdram": 4001,
      "Ġmulut": 4002,
      "Ġbreak": 4003,
      "Ġefisien": 4004,
      "ebah": 4005,
      "Ġris": 4006,
      "Ġhy": 4007,
      "Ġmineral": 4008,
      "Ġlembab": 4009,
      "bu": 4010,
      "SD": 4011,
      "Ġsambungan": 4012,
      "Ġâļłï¸ı": 4013,
      "ics": 4014,
      "Ġrendam": 4015,
      "ĠâĨ": 4016,
      "Ġperiksa": 4017,
      "ĠTerima": 4018,
      "Ġpermanen": 4019,
      "ektr": 4020,
      "Ġmertua": 4021,
      "ror": 4022,
      "ambu": 4023,
      "Ġmeleleh": 4024,
      "ĠSKS": 4025,
      "ĠMedium": 4026,
      "ewati": 4027,
      "uaran": 4028,
      "Ġsetinggi": 4029,
      "Ġbersihkan": 4030,
      "ce": 4031,
      "oom": 4032,
      "agam": 4033,
      "ĠData": 4034,
      "Di": 4035,
      "cepat": 4036,
      "Ġdry": 4037,
      "Ah": 4038,
      "Ġmand": 4039,
      "eses": 4040,
      "umini": 4041,
      "uminium": 4042,
      "Mi": 4043,
      "entan": 4044,
      "Ġsepanjang": 4045,
      "ĠFl": 4046,
      "elaskan": 4047,
      "Ġkelopak": 4048,
      "Ġbeneran": 4049,
      "Ġsiklus": 4050,
      "unda": 4051,
      "Ġrencana": 4052,
      "ĠKain": 4053,
      "Ġberbentuk": 4054,
      "Ġsayuran": 4055,
      "%**": 4056,
      "ray": 4057,
      "Ġtemen": 4058,
      "Ġtisu": 4059,
      "Ġribet": 4060,
      "Ġprotein": 4061,
      "Ġcle": 4062,
      "ĠKl": 4063,
      "Ġ**\"": 4064,
      "ipe": 4065,
      "Ġkesan": 4066,
      "Ġpillar": 4067,
      "ĠAlternatif": 4068,
      "Ġtoples": 4069,
      "ĠNggak": 4070,
      "kuat": 4071,
      "Ġim": 4072,
      "ĠLem": 4073,
      "Ġplus": 4074,
      "Ġpinset": 4075,
      "Ġpatah": 4076,
      "ĠPER": 4077,
      "Ġmusim": 4078,
      "Ġbercak": 4079,
      "Kek": 4080,
      "Ġnasi": 4081,
      "umm": 4082,
      "Ġperform": 4083,
      "ĠAduh": 4084,
      "ebus": 4085,
      "Ġjarang": 4086,
      "Ġamplas": 4087,
      "ĠTak": 4088,
      "ister": 4089,
      "Ġberas": 4090,
      "Ġkerj": 4091,
      "ngomong": 4092,
      "kualitas": 4093,
      "Ġdramatis": 4094,
      "Ber": 4095,
      "ĠâŃĲ": 4096,
      "turut": 4097,
      "ĠFrench": 4098,
      "anam": 4099,
      "Ġtump": 4100,
      "usah": 4101,
      "Ġrit": 4102,
      "Ġhigh": 4103,
      "ĠST": 4104,
      "Ġweb": 4105,
      "alami": 4106,
      "egato": 4107,
      "alistis": 4108,
      "Ġsosi": 4109,
      "ipun": 4110,
      "Ġkey": 4111,
      "ĠStyrofoam": 4112,
      "Ġby": 4113,
      "angun": 4114,
      "Ġmaterial": 4115,
      "Ġplat": 4116,
      "Ġrasio": 4117,
      "ĠSSD": 4118,
      "ĠKomp": 4119,
      "tive": 4120,
      "intetis": 4121,
      "alid": 4122,
      "elam": 4123,
      "ebook": 4124,
      "Ġpush": 4125,
      "Ġgrower": 4126,
      "udul": 4127,
      "rogen": 4128,
      "Ġjahit": 4129,
      "Ġhitungan": 4130,
      "Ġhanduk": 4131,
      "UK": 4132,
      "jem": 4133,
      "Ġdom": 4134,
      "Ġfungsi": 4135,
      "Ġkolektor": 4136,
      "ĠThanks": 4137,
      "Ġjaga": 4138,
      "Ġbentuknya": 4139,
      "erna": 4140,
      "ath": 4141,
      "ĠLipatan": 4142,
      "Ġcont": 4143,
      "ĠBuka": 4144,
      "Ġngeb": 4145,
      "Ġotak": 4146,
      "hen": 4147,
      "puk": 4148,
      "ahu": 4149,
      "Ġcre": 4150,
      "oner": 4151,
      "obaan": 4152,
      "Ġpopuler": 4153,
      "Ġmelingk": 4154,
      "Ġlemak": 4155,
      "Ġujungnya": 4156,
      "ause": 4157,
      "Ġlatar": 4158,
      "Ġenak": 4159,
      "Ġil": 4160,
      "Ġgen": 4161,
      "Ġmelepas": 4162,
      "Ġstain": 4163,
      "encan": 4164,
      "Ġbrush": 4165,
      "etch": 4166,
      "Ġbangun": 4167,
      "ĠðŁĮ": 4168,
      "Ġmelatih": 4169,
      "Ġpulpen": 4170,
      "light": 4171,
      "Ġrantai": 4172,
      "ilap": 4173,
      "ĠMisal": 4174,
      "ĠRak": 4175,
      "Ġpribadi": 4176,
      "Ġseragam": 4177,
      "imbangkan": 4178,
      "eak": 4179,
      "ous": 4180,
      "pm": 4181,
      "emukan": 4182,
      "Ġfreez": 4183,
      "Ġdiingat": 4184,
      "ektif": 4185,
      "odcast": 4186,
      "Ġtul": 4187,
      "Ġmenutup": 4188,
      "ĠPOV": 4189,
      "epet": 4190,
      "Ġpigmen": 4191,
      "quat": 4192,
      "Ġbenda": 4193,
      "Ġpull": 4194,
      "Ġpikir": 4195,
      "ection": 4196,
      "ogurt": 4197,
      "Dari": 4198,
      "lebih": 4199,
      "Ġku": 4200,
      "Ġmantap": 4201,
      "elit": 4202,
      "ĠPita": 4203,
      "Lap": 4204,
      "vas": 4205,
      "Ġsw": 4206,
      "embangan": 4207,
      "ike": 4208,
      "itiga": 4209,
      "ila": 4210,
      "ĠTempel": 4211,
      "udian": 4212,
      "Ġcokelat": 4213,
      "Kar": 4214,
      "la": 4215,
      "Ġtand": 4216,
      "Ġrangka": 4217,
      "sion": 4218,
      "ĠNV": 4219,
      "Ġrah": 4220,
      "ĠSup": 4221,
      "Me": 4222,
      "bl": 4223,
      "ile": 4224,
      "ĠMini": 4225,
      "Ġputar": 4226,
      "orial": 4227,
      "UM": 4228,
      "quar": 4229,
      "atatan": 4230,
      "ĠSer": 4231,
      "Ġdipasang": 4232,
      "Ġdasarnya": 4233,
      "Ġpipa": 4234,
      "18": 4235,
      "Ġmending": 4236,
      "Ġlawsone": 4237,
      "ĠMereka": 4238,
      "OH": 4239,
      "ning": 4240,
      "Ġbobot": 4241,
      "olio": 4242,
      "Ġinfeksi": 4243,
      "Ġanyaman": 4244,
      "dari": 4245,
      "Ġsun": 4246,
      "ĠCer": 4247,
      "ĠRAM": 4248,
      "Ġkontrol": 4249,
      "Ġsosial": 4250,
      "Ġay": 4251,
      "Ġtombol": 4252,
      "ĠHere": 4253,
      "ampoo": 4254,
      "Ġspidol": 4255,
      "Ġkasus": 4256,
      "13": 4257,
      "|------------": 4258,
      "ishing": 4259,
      "kannya": 4260,
      "ĠKeb": 4261,
      "Ġmemotong": 4262,
      "Ġserius": 4263,
      ".**": 4264,
      "Gunakan": 4265,
      "ĠBel": 4266,
      "Ġmenurun": 4267,
      "umbu": 4268,
      "Ġmasalahnya": 4269,
      "Ġbackground": 4270,
      "ĠInstagram": 4271,
      "inga": 4272,
      "ĠRep": 4273,
      "yakit": 4274,
      "quare": 4275,
      "Sp": 4276,
      "Ġek": 4277,
      "Ġsle": 4278,
      "ĠTinggi": 4279,
      "indungi": 4280,
      "Ġngerasa": 4281,
      "Tahap": 4282,
      "Ġmore": 4283,
      "Ġnamun": 4284,
      "ĠPant": 4285,
      "awah": 4286,
      "âĶĢâĶĢâĶ": 4287,
      "Ġdiperhatikan": 4288,
      "Ġmendapat": 4289,
      "Ġkurangi": 4290,
      "asis": 4291,
      "osum": 4292,
      "tera": 4293,
      "Ġprint": 4294,
      "âĢ¢": 4295,
      "Ġsignif": 4296,
      "11": 4297,
      "Ġrangkum": 4298,
      "ĠPol": 4299,
      "ĠRe": 4300,
      "ove": 4301,
      "Ġpub": 4302,
      "Ġtau": 4303,
      "ĠDia": 4304,
      "Ġsempat": 4305,
      "Ġsintetis": 4306,
      "Ġbulu": 4307,
      "Ġkre": 4308,
      "atasi": 4309,
      "ebak": 4310,
      "ĠMasih": 4311,
      "Ġukurannya": 4312,
      "Jika": 4313,
      "Ġmom": 4314,
      "Ġdialog": 4315,
      "ĠIdealnya": 4316,
      "anaskan": 4317,
      "ĠPaling": 4318,
      "Ġpensil": 4319,
      "Ġkulkas": 4320,
      "Ġrileks": 4321,
      "Ġpori": 4322,
      "Ġdep": 4323,
      "Ġpangkal": 4324,
      "Ġmenambahkan": 4325,
      "ĠRisiko": 4326,
      "Ġlemon": 4327,
      "Ġsejajar": 4328,
      "Ġgoreng": 4329,
      "Ġsitu": 4330,
      "Ġstyrofoam": 4331,
      "âĢĵ": 4332,
      "onia": 4333,
      "antalan": 4334,
      "ĠSy": 4335,
      "ĠLil": 4336,
      "ĠGel": 4337,
      "ĠAplikasi": 4338,
      "ilangkan": 4339,
      "IB": 4340,
      "satu": 4341,
      "Ġpinggul": 4342,
      "empatkan": 4343,
      "erlukan": 4344,
      ":|": 4345,
      "atik": 4346,
      "Ġbergantian": 4347,
      "wist": 4348,
      "Ġutuh": 4349,
      "Ġkutu": 4350,
      "ĠSAT": 4351,
      "ĠGerakan": 4352,
      "ĠĠĠĠĠĠ": 4353,
      "Ġstiker": 4354,
      "Ġinternal": 4355,
      "Sol": 4356,
      "Ġib": 4357,
      "ontok": 4358,
      "esis": 4359,
      "ĠInt": 4360,
      "Ġmengganggu": 4361,
      "ĠKartu": 4362,
      "Ġorigami": 4363,
      "arung": 4364,
      "Ġâĺ": 4365,
      "Ġberkualitas": 4366,
      "Ġalas": 4367,
      "irmasi": 4368,
      "!\"": 4369,
      "300": 4370,
      "ret": 4371,
      "val": 4372,
      "Ġakibat": 4373,
      "Ġmengk": 4374,
      "Ġsdt": 4375,
      "Ġpecah": 4376,
      "ture": 4377,
      "ĠHal": 4378,
      "Ġtetesan": 4379,
      "ĠPush": 4380,
      "Re": 4381,
      "Ġtag": 4382,
      "Ġtropis": 4383,
      "ĠBaris": 4384,
      "Ġakses": 4385,
      "sk": 4386,
      "usta": 4387,
      "ĠSen": 4388,
      "ĠTusuk": 4389,
      "ĠPosisi": 4390,
      "obusta": 4391,
      "ofolio": 4392,
      "Ġmelewati": 4393,
      "Apakah": 4394,
      "?\"": 4395,
      "erahan": 4396,
      "Ġded": 4397,
      "Ġbungkus": 4398,
      "âĶģâĶģâĶģâĶģâĶģâĶģâĶģâĶģâĶģâĶģâĶģâĶģâĶģâĶģâĶģâĶģ": 4399,
      "ĠPVC": 4400,
      "IM": 4401,
      "Ġpeg": 4402,
      "ĠSistem": 4403,
      "Ġgamb": 4404,
      "Ġmenurut": 4405,
      "Ġputaran": 4406,
      "Ġmodal": 4407,
      "Ġpercobaan": 4408,
      "Ġbingkai": 4409,
      "ĠSab": 4410,
      "okok": 4411,
      "Ġsemuanya": 4412,
      "Ġpark": 4413,
      "Ġsolusinya": 4414,
      "Ġkecok": 4415,
      "ĠðŁ¥": 4416,
      "ĠProses": 4417,
      "inter": 4418,
      "Ġgas": 4419,
      "Ġfenomena": 4420,
      "Ġhard": 4421,
      "Form": 4422,
      "ewan": 4423,
      "ĠðŁĺĬ": 4424,
      "hasilan": 4425,
      "Ġmenunggu": 4426,
      "embunyi": 4427,
      "Ġkedap": 4428,
      "Ġberharga": 4429,
      "ban": 4430,
      "Ġsif": 4431,
      "Ġaduk": 4432,
      "angkai": 4433,
      "Ġsebulan": 4434,
      "Ġeksp": 4435,
      "Ġkeduanya": 4436,
      "Ġpisau": 4437,
      "jari": 4438,
      "apus": 4439,
      "Ġmembuka": 4440,
      "Ġbatik": 4441,
      "ommend": 4442,
      "Baik": 4443,
      "OL": 4444,
      "ĠAT": 4445,
      "Ġadonan": 4446,
      "ĠMinyak": 4447,
      "Jadi": 4448,
      "ll": 4449,
      "Ġmundur": 4450,
      "Ġtray": 4451,
      "Ġaquarium": 4452,
      "ĠAkar": 4453,
      "Ġplatform": 4454,
      "AC": 4455,
      "sigen": 4456,
      "ĠEx": 4457,
      "Ġapartemen": 4458,
      "ĠPasti": 4459,
      "Menurut": 4460,
      "Contoh": 4461,
      "ax": 4462,
      "sw": 4463,
      "Ġdouble": 4464,
      "aksa": 4465,
      "ĠSE": 4466,
      "ĠHR": 4467,
      "angkir": 4468,
      "ĠLay": 4469,
      "Ġdalamnya": 4470,
      "ĠNar": 4471,
      "Ġdiputar": 4472,
      "Ġkomposisi": 4473,
      "Ġpandu": 4474,
      "Ġakhirnya": 4475,
      "Ġrecommend": 4476,
      "acamata": 4477,
      "Ġberfungsi": 4478,
      "antang": 4479,
      "Ġsupport": 4480,
      "Ġdicampur": 4481,
      "Ġtulisan": 4482,
      "Ġmengubah": 4483,
      "Ġestetik": 4484,
      ":*": 4485,
      "Cache": 4486,
      "king": 4487,
      "innya": 4488,
      "Ġlebah": 4489,
      "Ġcomp": 4490,
      "Ġrentan": 4491,
      "ensik": 4492,
      "Ġrealistis": 4493,
      "Ġperhati": 4494,
      "Ġins": 4495,
      "anja": 4496,
      "Ġcupang": 4497,
      "Apa": 4498,
      "amar": 4499,
      "onasi": 4500,
      "ĠFoto": 4501,
      "Ac": 4502,
      "atakan": 4503,
      "Ġmembaca": 4504,
      "Ġsampah": 4505,
      "Ġdibersihkan": 4506,
      "unjung": 4507,
      "Ġpenggunaan": 4508,
      "ĠNVMe": 4509,
      "etail": 4510,
      "Ġâľ": 4511,
      "act": 4512,
      "Ġselebar": 4513,
      "inggian": 4514,
      "Ġterjangkau": 4515,
      "Ġformalnya": 4516,
      "ĠX": 4517,
      "ading": 4518,
      "ĠRH": 4519,
      "Ġsemangat": 4520,
      "Ġaluminium": 4521,
      "Ġpengalaman": 4522,
      "Ġpelindung": 4523,
      "Ġtelapak": 4524,
      "Ġhidroponik": 4525,
      "Ġbreakdown": 4526,
      "efl": 4527,
      "Ġtopik": 4528,
      "sifat": 4529,
      "Ġtum": 4530,
      "umsi": 4531,
      "ĠPasang": 4532,
      "Ġliat": 4533,
      "ĠðŁŁ¢": 4534,
      "oid": 4535,
      "Ġid": 4536,
      "Ġcor": 4537,
      "onjol": 4538,
      "ĠTahap": 4539,
      "Ġakun": 4540,
      "ĠPull": 4541,
      "Ġ35": 4542,
      "ooth": 4543,
      "Ġditu": 4544,
      "Ġnaf": 4545,
      "ĠMel": 4546,
      "ĠRambut": 4547,
      "ĠSelama": 4548,
      "hawat": 4549,
      "arus": 4550,
      "âĶĢâĶ": 4551,
      "Ġgraf": 4552,
      "Ġkontak": 4553,
      "Ġrekening": 4554,
      "hawatiran": 4555,
      "Ġdiisi": 4556,
      "ĠIsi": 4557,
      "Ġmembutuhkan": 4558,
      "daun": 4559,
      "Ġselain": 4560,
      "ĠBerapa": 4561,
      "Ġmanaj": 4562,
      "Ġkebanyakan": 4563,
      "Ġtiang": 4564,
      "Ġhewan": 4565,
      "ĠSNI": 4566,
      "Ġbersifat": 4567,
      "ending": 4568,
      "Ġkeny": 4569,
      "ĠSemoga": 4570,
      "Skor": 4571,
      "Ġmental": 4572,
      "tanda": 4573,
      "inishing": 4574,
      "alanya": 4575,
      "ocor": 4576,
      "Ġemail": 4577,
      "Ġkompleks": 4578,
      "Ġtelinga": 4579,
      "watering": 4580,
      "Ġmode": 4581,
      "oni": 4582,
      "ever": 4583,
      "Ġlaci": 4584,
      "Level": 4585,
      "caya": 4586,
      "Ġmari": 4587,
      "elai": 4588,
      "Ġgaji": 4589,
      "ĠMedia": 4590,
      "ayanya": 4591,
      "erjaan": 4592,
      "asia": 4593,
      "Ġbantuan": 4594,
      "Ġmendukung": 4595,
      "Ġkeluarga": 4596,
      "entuhan": 4597,
      "por": 4598,
      "Ġperut": 4599,
      "Ġsedangkan": 4600,
      "Ġmelingkar": 4601,
      "Hasil": 4602,
      "enaga": 4603,
      "ede": 4604,
      "andel": 4605,
      "Ġselamat": 4606,
      "off": 4607,
      "umber": 4608,
      "Ġdown": 4609,
      "Ġmew": 4610,
      "Ġdiatur": 4611,
      "ĠMakan": 4612,
      "Ġtransfer": 4613,
      "biasanya": 4614,
      "Ġparkour": 4615,
      "com": 4616,
      "tama": 4617,
      "Ġapel": 4618,
      "Ġgelembung": 4619,
      "Ġsegitiga": 4620,
      "Ġcepet": 4621,
      "Ġmenu": 4622,
      "ainkan": 4623,
      "Ġ48": 4624,
      "Ġsemalaman": 4625,
      "iteria": 4626,
      "alikan": 4627,
      "Ġmeninggal": 4628,
      "Ġtimer": 4629,
      "entif": 4630,
      "Ġbukti": 4631,
      "Ġtujuan": 4632,
      "Ġpersiapan": 4633,
      "Ġfeses": 4634,
      "inginkan": 4635,
      "elupas": 4636,
      "Ġproporsi": 4637,
      "va": 4638,
      "ĠTutup": 4639,
      "Ġpremis": 4640,
      "ĠMemang": 4641,
      "ujuannya": 4642,
      "arin": 4643,
      "ĠKaca": 4644,
      "ipkan": 4645,
      "Ġbintik": 4646,
      "Ġcupping": 4647,
      "Ġdef": 4648,
      "Nr": 4649,
      "VS": 4650,
      "Ġmedium": 4651,
      "Ġhair": 4652,
      "agalan": 4653,
      "icin": 4654,
      "Ġditarik": 4655,
      "Ġkepikiran": 4656,
      "Ġ:": 4657,
      "Ġpu": 4658,
      "Ġpes": 4659,
      "stem": 4660,
      "ho": 4661,
      "Ġbag": 4662,
      "sistensi": 4663,
      "ukupnya": 4664,
      "Ġantioksid": 4665,
      "Ġpetunjuk": 4666,
      "Ġreferensi": 4667,
      "Ġtempelkan": 4668,
      "eam": 4669,
      "ĠSheet": 4670,
      "ĠBr": 4671,
      "INGG": 4672,
      "Analisis": 4673,
      "Ġpremium": 4674,
      "Ġnoise": 4675,
      "Ġdoang": 4676,
      "uit": 4677,
      "ĠTadi": 4678,
      "ĠNih": 4679,
      "Ġterbentuk": 4680,
      "Ġgrid": 4681,
      "stirahat": 4682,
      "Ġkolintang": 4683,
      "|----------------": 4684,
      "Ġpenjual": 4685,
      "sal": 4686,
      "Ġsat": 4687,
      "atau": 4688,
      "ĠKons": 4689,
      "Ġkarbon": 4690,
      "Ġkesalahan": 4691,
      "Ġanggrek": 4692,
      "Ġgunung": 4693,
      "elitian": 4694,
      "OM": 4695,
      "Ġurutan": 4696,
      "arangan": 4697,
      "Ġrap": 4698,
      "ĠBungkus": 4699,
      "umpuk": 4700,
      "Ġkonsistensi": 4701,
      "Mantap": 4702,
      "ĠTarik": 4703,
      "uktu": 4704,
      "Ġtransl": 4705,
      "Ġmaksudnya": 4706,
      "Ġmikir": 4707,
      "Ġkotoran": 4708,
      "ĠKemudahan": 4709,
      "ves": 4710,
      "ekam": 4711,
      "abika": 4712,
      "ĠWh": 4713,
      "Ġelektr": 4714,
      "Ġgambaran": 4715,
      "pensi": 4716,
      "ameran": 4717,
      "ites": 4718,
      "otip": 4719,
      "Ġmengatur": 4720,
      "alian": 4721,
      "Ġreview": 4722,
      "ĠMaksudnya": 4723,
      "AG": 4724,
      "Ġuap": 4725,
      "Ġbening": 4726,
      "ĠTV": 4727,
      "ĠKuncinya": 4728,
      "ompa": 4729,
      "unyikan": 4730,
      "Ġpalsu": 4731,
      "Ġrecommended": 4732,
      "cal": 4733,
      "Ġciri": 4734,
      "ĠTunggu": 4735,
      "uti": 4736,
      "Ġberbahaya": 4737,
      "Ġbisnis": 4738,
      "Pr": 4739,
      "Ġmac": 4740,
      "Ġjantung": 4741,
      "ĠMes": 4742,
      "Ġpemas": 4743,
      "Ġsecukupnya": 4744,
      "ĠPerhatikan": 4745,
      "Ġmempert": 4746,
      "ĠSebenarnya": 4747,
      "Ġcondition": 4748,
      "Ġfreezer": 4749,
      "Ġcop": 4750,
      "ĠTab": 4751,
      "ðŁĮ": 4752,
      "Ġditempel": 4753,
      "Ind": 4754,
      "phone": 4755,
      "Ġberwarna": 4756,
      "ĠStitch": 4757,
      "Ġoksigen": 4758,
      "arni": 4759,
      "Ġairnya": 4760,
      "ĠTerlalu": 4761,
      "Ġlokasi": 4762,
      "arthCache": 4763,
      "usahaan": 4764,
      "Ġkenyamanan": 4765,
      "kar": 4766,
      "uah": 4767,
      "Ġcoil": 4768,
      "Ġjel": 4769,
      "ĠSw": 4770,
      "ĠPoin": 4771,
      "abrik": 4772,
      "ajaman": 4773,
      "emplate": 4774,
      "ĠMerah": 4775,
      "Ġdew": 4776,
      "ipis": 4777,
      "ampung": 4778,
      "iburan": 4779,
      "Ġpengeluaran": 4780,
      "Betul": 4781,
      "Ġent": 4782,
      "Ġdtk": 4783,
      "Ġbenturan": 4784,
      "opee": 4785,
      "Ġfret": 4786,
      "Ġpajak": 4787,
      "aim": 4788,
      "Ġgeser": 4789,
      "Ġgrip": 4790,
      "onstera": 4791,
      "ongkar": 4792,
      "Ġinstan": 4793,
      "onomis": 4794,
      "Ġdll": 4795,
      "Ġhembus": 4796,
      "Ġâĸ": 4797,
      "ampuan": 4798,
      "Ġrepot": 4799,
      "ĠAkhir": 4800,
      "alisthen": 4801,
      "Ġsignifikan": 4802,
      "alisthenics": 4803,
      "Kenapa": 4804,
      "ynam": 4805,
      "ocach": 4806,
      "ashi": 4807,
      "eep": 4808,
      "Ġdenda": 4809,
      "Ġcon": 4810,
      "Ġnar": 4811,
      "ĠVer": 4812,
      "Ġsleep": 4813,
      "Sel": 4814,
      "Ġkup": 4815,
      "Ġmol": 4816,
      "adai": 4817,
      "Ġatasnya": 4818,
      "Ġkapur": 4819,
      "so": 4820,
      "Ġinstr": 4821,
      "ĠĠĠĠĠĠĠ": 4822,
      "inginan": 4823,
      "ENT": 4824,
      "Ġkandungan": 4825,
      "Skenario": 4826,
      "Ġcream": 4827,
      "bing": 4828,
      "Ġlengan": 4829,
      "ĠBeli": 4830,
      "ĠEarthCache": 4831,
      "ĠTerakhir": 4832,
      "Ġdisimpan": 4833,
      "ĠIndigo": 4834,
      "rown": 4835,
      "Ġslow": 4836,
      "sword": 4837,
      "ani": 4838,
      "idu": 4839,
      "egi": 4840,
      "Ġrumit": 4841,
      "Ġpencerna": 4842,
      "Ġtengg": 4843,
      "Ġreg": 4844,
      "Ġakik": 4845,
      "Ġsesuaikan": 4846,
      "Ġurus": 4847,
      "Ġrunout": 4848,
      "ĠSoft": 4849,
      "Ġmask": 4850,
      "Ġyogurt": 4851,
      "PSC": 4852,
      "orous": 4853,
      "Ġcr": 4854,
      "Ġgitar": 4855,
      "ĠPeny": 4856,
      "Ġ27": 4857,
      "antul": 4858,
      "Ġmempercepat": 4859,
      "Ġkapasitas": 4860,
      "ĠâĨĲ": 4861,
      "Oh": 4862,
      "urium": 4863,
      "ĠTes": 4864,
      "ĠAduk": 4865,
      "ĠPomodoro": 4866,
      "Ġ180": 4867,
      "Ġmengeluarkan": 4868,
      "turun": 4869,
      "Ġcacing": 4870,
      "========": 4871,
      "OK": 4872,
      "serv": 4873,
      "ahakan": 4874,
      "elahan": 4875,
      "Ġnempel": 4876,
      "ĠBatu": 4877,
      "olom": 4878,
      "Ġ19": 4879,
      "Ġseber": 4880,
      "ĠUji": 4881,
      "anggung": 4882,
      "Ġsiapin": 4883,
      "Ġgagang": 4884,
      "Ġpelepah": 4885,
      "ynamic": 4886,
      "ated": 4887,
      "Ġlentur": 4888,
      "ĠRendam": 4889,
      "Ġsekadar": 4890,
      "och": 4891,
      "evan": 4892,
      "Ġmembuatnya": 4893,
      "Ġterdengar": 4894,
      "Mas": 4895,
      "Ġterik": 4896,
      "Ġmengalami": 4897,
      "Ġelegan": 4898,
      "Ġpeti": 4899,
      "ĠNgomong": 4900,
      "Ġpressing": 4901,
      "Bisa": 4902,
      "Ġbuang": 4903,
      "Ġkacamata": 4904,
      "Ġpukul": 4905,
      "onen": 4906,
      "ĠPenc": 4907,
      "ĠKolom": 4908,
      "Ġmaju": 4909,
      "Ġmenekan": 4910,
      "stand": 4911,
      "Ġposisinya": 4912,
      "Ġdilepas": 4913,
      "Ġhidung": 4914,
      "ĠParameter": 4915,
      "cr": 4916,
      "sangat": 4917,
      "Ġmold": 4918,
      "Ġpodcast": 4919,
      "isk": 4920,
      "ðŁİ": 4921,
      "impul": 4922,
      "Ġforensik": 4923,
      "IL": 4924,
      "Pen": 4925,
      "dus": 4926,
      "ĠAquarium": 4927,
      "Ġdiperbaiki": 4928,
      "Ġkesulitan": 4929,
      "Ġindikator": 4930,
      "Ġkeramas": 4931,
      "55": 4932,
      "oy": 4933,
      "ukses": 4934,
      "Ġperbaikan": 4935,
      "istribusi": 4936,
      "Bi": 4937,
      "ler": 4938,
      "Ġsheet": 4939,
      "Ġgrade": 4940,
      "Ġpolos": 4941,
      "ĠSementara": 4942,
      "Ġbuaya": 4943,
      "Ġgrafik": 4944,
      "hy": 4945,
      "inar": 4946,
      "Ġkuncinya": 4947,
      "Ġtanggal": 4948,
      "ĠJad": 4949,
      "Ġchange": 4950,
      "Ġoriginal": 4951,
      "Ġberant": 4952,
      "ĠVisual": 4953,
      "thurium": 4954,
      "IDAK": 4955,
      "21": 4956,
      "Ġtaruh": 4957,
      "aps": 4958,
      "Ġakal": 4959,
      "engker": 4960,
      "Ġmodern": 4961,
      "ĠKecepatan": 4962,
      "Ġpencernaan": 4963,
      "ulihan": 4964,
      "ĠKE": 4965,
      "ĠGampang": 4966,
      "ecara": 4967,
      "ondisi": 4968,
      "Ġkonsul": 4969,
      "Ġmusik": 4970,
      "ĠðŁİī": 4971,
      "Ġdewasa": 4972,
      "Baris": 4973,
      "eriksa": 4974,
      "Ġbody": 4975,
      "Ġtema": 4976,
      "Ġmendengar": 4977,
      "asahi": 4978,
      "78": 4979,
      "pori": 4980,
      "Ġsaham": 4981,
      "usukan": 4982,
      "ilter": 4983,
      "Ġakuarium": 4984,
      "estorasi": 4985,
      "600": 4986,
      "walnya": 4987,
      "Ġbund": 4988,
      "Ġlicin": 4989,
      "ilau": 4990,
      "Ġmengembang": 4991,
      "aransi": 4992,
      "Ġterkontrol": 4993,
      "ĠKlanceng": 4994,
      "pos": 4995,
      "onus": 4996,
      "aste": 4997,
      "Ġgerak": 4998,
      "Ġlayu": 4999,
      "tulis": 5000,
      "Gimana": 5001,
      "Ġco": 5002,
      "Ġganda": 5003,
      "Ġberulang": 5004,
      "Ġ33": 5005,
      "angkung": 5006,
      "ĠPeriksa": 5007,
      "Ġnyata": 5008,
      "Ġpersegi": 5009,
      "ĠKayak": 5010,
      "Ġpraktikkan": 5011,
      "Ġperkembangan": 5012,
      "ĠSATA": 5013,
      "Ġstudi": 5014,
      "ora": 5015,
      "Ġgold": 5016,
      "osong": 5017,
      "Ġvar": 5018,
      "Ġvalid": 5019,
      "Ġmemungkin": 5020,
      "Ġmemungkinkan": 5021,
      "Atur": 5022,
      "Ġperp": 5023,
      "ambahan": 5024,
      "ĠVinyl": 5025,
      "Ġshampoo": 5026,
      "ħâĺħâĺ": 5027,
      "Ġberantakan": 5028,
      "JS": 5029,
      "Ġsaf": 5030,
      "Ġmarket": 5031,
      "Ġporous": 5032,
      "Ġrekomendasikan": 5033,
      "upiah": 5034,
      "Ġukiran": 5035,
      "Ġtandanya": 5036,
      "umentasi": 5037,
      "Ġkeg": 5038,
      "ĠJumlah": 5039,
      "ahankan": 5040,
      "Ġmeres": 5041,
      "Ġumumnya": 5042,
      "Ġreaksi": 5043,
      "firmasi": 5044,
      "Ġdiagonal": 5045,
      "ekukan": 5046,
      "ĠIt": 5047,
      "sihan": 5048,
      "Ġspot": 5049,
      "Ġsesuatu": 5050,
      "Ġlunak": 5051,
      "Ġmonitor": 5052,
      "leg": 5053,
      "iture": 5054,
      "ĠIm": 5055,
      "ighting": 5056,
      "\")": 5057,
      "aut": 5058,
      "Ġrontok": 5059,
      "ĠHARI": 5060,
      "Ġpersis": 5061,
      "agnosis": 5062,
      "AB": 5063,
      "jakan": 5064,
      "tis": 5065,
      "atang": 5066,
      "alang": 5067,
      "ĠBagian": 5068,
      "ĠKal": 5069,
      "Ġyaitu": 5070,
      "Ġpakis": 5071,
      "UT": 5072,
      "ĠHVS": 5073,
      "osa": 5074,
      "ĠKarya": 5075,
      "place": 5076,
      "Ġtime": 5077,
      "Ġtranslation": 5078,
      "Ġdimas": 5079,
      "Ġdisplay": 5080,
      "ĠPemula": 5081,
      "ĪâĸĪâĸĪâĸĪâĸ": 5082,
      "engarannya": 5083,
      "ĠSP": 5084,
      "Ġgue": 5085,
      "Ġunt": 5086,
      "ĠRata": 5087,
      "avender": 5088,
      "fl": 5089,
      "Ġkick": 5090,
      "Ġknot": 5091,
      "ĠDua": 5092,
      "icu": 5093,
      "Ġkusam": 5094,
      "ĠUdah": 5095,
      "AW": 5096,
      "br": 5097,
      "Ġpabrik": 5098,
      "ĠTok": 5099,
      "imulasi": 5100,
      "Ġ150": 5101,
      "ekatkan": 5102,
      "Ġinfo": 5103,
      "ocking": 5104,
      "arbon": 5105,
      "Ġtampak": 5106,
      "ĠHOB": 5107,
      "Ġwe": 5108,
      "Ġwort": 5109,
      "Ġmerancang": 5110,
      "ĠSkenario": 5111,
      "Ġkomun": 5112,
      "buru": 5113,
      "just": 5114,
      "Ġkop": 5115,
      "usia": 5116,
      "Ġcakar": 5117,
      "Ġcucuk": 5118,
      "ĠKlik": 5119,
      "Ġfood": 5120,
      "indungan": 5121,
      "Ġnotes": 5122,
      "aitun": 5123,
      "Ġfungsinya": 5124,
      "Kita": 5125,
      "ekul": 5126,
      "Ġmembeli": 5127,
      "Ġintensitas": 5128,
      "Ġstainless": 5129,
      "Ġporsi": 5130,
      "ĠKTP": 5131,
      "ĠPP": 5132,
      "Ġberikan": 5133,
      "egahan": 5134,
      "ĠOil": 5135,
      "Ġmasker": 5136,
      "Ġmemanjang": 5137,
      "ĠWajar": 5138,
      "Ġbelanja": 5139,
      "âķĲâķĲâķĲâķĲâķĲâķĲâķ": 5140,
      "ertarik": 5141,
      "Ġdisk": 5142,
      "ĠKelompok": 5143,
      "rosur": 5144,
      "Ġsayur": 5145,
      "|---|---|---|---|": 5146,
      "ulus": 5147,
      "ukus": 5148,
      "Ġkehil": 5149,
      "Ġberm": 5150,
      "uncak": 5151,
      "ĠKelebihan": 5152,
      "ĠTanpa": 5153,
      "Ġportofolio": 5154,
      "Ġkehilangan": 5155,
      "antungan": 5156,
      "ĠPupuk": 5157,
      "ĠHelm": 5158,
      "Ġkemudian": 5159,
      "LR": 5160,
      "atus": 5161,
      "edi": 5162,
      "ĠKualitas": 5163,
      "ĠPel": 5164,
      "ĠFull": 5165,
      "Ġserv": 5166,
      "Ġbahaya": 5167,
      "ancur": 5168,
      "ĠIngat": 5169,
      "oon": 5170,
      "alat": 5171,
      "Ġlink": 5172,
      "Ġheat": 5173,
      "umu": 5174,
      "Ġperusahaan": 5175,
      "abang": 5176,
      "Ġpenyakit": 5177,
      "ocop": 5178,
      "ENG": 5179,
      "ĠBPJS": 5180,
      "Ġmengkilap": 5181,
      "Ġdeg": 5182,
      "Ġbantalan": 5183,
      "ĠOm": 5184,
      "ĠAnthurium": 5185,
      ")**.": 5186,
      "Ġsejauh": 5187,
      "eather": 5188,
      "portasi": 5189,
      "zin": 5190,
      "isih": 5191,
      "itrogen": 5192,
      "ĠTurun": 5193,
      "ajari": 5194,
      "Ġspesi": 5195,
      "Ġterkenal": 5196,
      "âķĲâķĲâķĲâķĲâķĲâķĲâķĲâķ": 5197,
      "Ġnitrat": 5198,
      "ĠKak": 5199,
      "ĠRPE": 5200,
      "ĠDr": 5201,
      "Ġagr": 5202,
      "Ġseal": 5203,
      "Ġketahanan": 5204,
      "ĠCatatan": 5205,
      "faatkan": 5206,
      "Ġseberapa": 5207,
      "ĠBunda": 5208,
      "ĠLum": 5209,
      "Ġpulau": 5210,
      "Ġantioksidan": 5211,
      "Ġbrosur": 5212,
      "atal": 5213,
      "etap": 5214,
      "etsa": 5215,
      "ado": 5216,
      "ihak": 5217,
      "Ġhum": 5218,
      "ekstur": 5219,
      "rive": 5220,
      "Ġdinamis": 5221,
      "Ġsertifikasi": 5222,
      "Ġkerjanya": 5223,
      "Str": 5224,
      "Ġseng": 5225,
      "usudama": 5226,
      "ebalan": 5227,
      "ĠPlus": 5228,
      "ĠFoil": 5229,
      "enser": 5230,
      "Ġsirih": 5231,
      "ĠSebagai": 5232,
      "Ġestetika": 5233,
      "uktuasi": 5234,
      "beda": 5235,
      "zz": 5236,
      "Ġdye": 5237,
      "atri": 5238,
      "Ġreksa": 5239,
      "Ġperal": 5240,
      "Ġfrom": 5241,
      "Ġsisanya": 5242,
      "Ġgame": 5243,
      "400": 5244,
      "Ġpakan": 5245,
      "amera": 5246,
      "ĠPutar": 5247,
      "Ġtabungan": 5248,
      "Sebelum": 5249,
      "Ġinformasi": 5250,
      "Ġcangkir": 5251,
      "ĠMinta": 5252,
      "ision": 5253,
      "ĠApalagi": 5254,
      "Ġdiganti": 5255,
      "latan": 5256,
      "apatan": 5257,
      "aul": 5258,
      "Ġterima": 5259,
      "ĠMalam": 5260,
      "ĠCanting": 5261,
      "Ġvia": 5262,
      "eferensi": 5263,
      "Ġketinggian": 5264,
      "Ġcasual": 5265,
      "jemahkan": 5266,
      "Lapisan": 5267,
      "120": 5268,
      "28": 5269,
      "Ġep": 5270,
      "ĠAlat": 5271,
      "Ġgro": 5272,
      "Ġmenentukan": 5273,
      "Ġberupa": 5274,
      "Ġmenyesuaikan": 5275,
      "Ġketat": 5276,
      "Ġdarah": 5277,
      "ĠShopee": 5278,
      "App": 5279,
      "ĠJarak": 5280,
      "ĠKor": 5281,
      "iro": 5282,
      "okasi": 5283,
      "rov": 5284,
      "ows": 5285,
      "ustrasi": 5286,
      "Ġberjalan": 5287,
      "Ġpesan": 5288,
      "ety": 5289,
      "ihara": 5290,
      "ĠIstirahat": 5291,
      "Ġmasak": 5292,
      "Ġestimasi": 5293,
      "Ġbalance": 5294,
      "elamatkan": 5295,
      "Ġ________": 5296,
      "Ġbusa": 5297,
      "AJ": 5298,
      "kecil": 5299,
      "Ġpassword": 5300,
      "Ġditambahkan": 5301,
      "ootleg": 5302,
      "rorless": 5303,
      "ummary": 5304,
      "Ġritme": 5305,
      "ocopeat": 5306,
      "Catatan": 5307,
      "night": 5308,
      "Ġerg": 5309,
      "Ġbengk": 5310,
      "elola": 5311,
      "isten": 5312,
      "ĠCetakan": 5313,
      "acing": 5314,
      "Ġkerak": 5315,
      "atic": 5316,
      "Ġrelevan": 5317,
      "Ġrefl": 5318,
      "Ġrotasi": 5319,
      "Ġpewarna": 5320,
      "ST": 5321,
      "ware": 5322,
      "Ġben": 5323,
      "Ġtamu": 5324,
      "Ġbareng": 5325,
      "Ġstop": 5326,
      "Ġstabilitas": 5327,
      "Ġsolid": 5328,
      "Ġkabut": 5329,
      "Ġtegang": 5330,
      "**!": 5331,
      "ili": 5332,
      "ĠSudut": 5333,
      "idih": 5334,
      "ĠCPSC": 5335,
      "ĠDo": 5336,
      "Ġmemas": 5337,
      "Ġmelebar": 5338,
      "Ġdeter": 5339,
      "ifier": 5340,
      "Ġsejak": 5341,
      "emahan": 5342,
      "Ġmenand": 5343,
      "ograf": 5344,
      "Ġdicoba": 5345,
      "utra": 5346,
      "ĠSebaiknya": 5347,
      "Ġpewawancara": 5348,
      "Ġcapek": 5349,
      "Ġmeninggalkan": 5350,
      "Ġali": 5351,
      "embunyikan": 5352,
      "Ġsebagian": 5353,
      "abungkan": 5354,
      "arter": 5355,
      "Ġmuat": 5356,
      "ich": 5357,
      "minimal": 5358,
      "Ġadaptasi": 5359,
      "Ġkecoklatan": 5360,
      "LO": 5361,
      "pal": 5362,
      "angit": 5363,
      "Ġcool": 5364,
      "ĠJaga": 5365,
      "Ġzaitun": 5366,
      "Ġisolasi": 5367,
      "Ġtepung": 5368,
      "ĠChecklist": 5369,
      "Ġampuh": 5370,
      "ĠUkur": 5371,
      "Ġmicro": 5372,
      "ĠOrig": 5373,
      "ĠðŁıĨ": 5374,
      "Prot": 5375,
      "iarkan": 5376,
      "ukulan": 5377,
      "uto": 5378,
      "ĠNada": 5379,
      "Ġmenyebar": 5380,
      "Ġbergel": 5381,
      "ĠProt": 5382,
      "Ġmicrofiber": 5383,
      "Ġember": 5384,
      "tipis": 5385,
      "hijau": 5386,
      "ĊĠĠĠĠĠĠĠĠ": 5387,
      "ĠAM": 5388,
      "oris": 5389,
      "Ġfast": 5390,
      "oklat": 5391,
      "ĠGl": 5392,
      "Ġngomong": 5393,
      "Ġkeringkan": 5394,
      "ĲâķĲâķĲâķĲâķĲâķĲâķĲâķĲâķĲâķĲâķĲâķĲâķĲâķĲâķĲâķĲâķ": 5395,
      "Ġperakitan": 5396,
      "Kertas": 5397,
      "Ġpindahkan": 5398,
      "Ġleg": 5399,
      "Ġmengangkat": 5400,
      "Ġselotip": 5401,
      "Ġprinsip": 5402,
      "ayangan": 5403,
      "Ġangle": 5404,
      "Ġartistik": 5405,
      "Ġkota": 5406,
      "Ġppm": 5407,
      "ĠSep": 5408,
      "ĠPAN": 5409,
      "adian": 5410,
      "Ġsteel": 5411,
      "Ġskill": 5412,
      "Ġluntur": 5413,
      "Ġperalatan": 5414,
      ".*": 5415,
      "BP": 5416,
      "Ġinti": 5417,
      "ĠHanya": 5418,
      "Ġinfus": 5419,
      "Ġpantesan": 5420,
      "Ġfurniture": 5421,
      "Ġsap": 5422,
      "ĠTali": 5423,
      "ukaannya": 5424,
      "Ġidealnya": 5425,
      "duksi": 5426,
      "Ġ@": 5427,
      "Ġkit": 5428,
      "ĠAI": 5429,
      "ĠHmm": 5430,
      "Ġsinyal": 5431,
      "Setiap": 5432,
      "Ch": 5433,
      "bulan": 5434,
      "back": 5435,
      "Ġsur": 5436,
      "apasan": 5437,
      "ĠSuara": 5438,
      "Ġsela": 5439,
      "Ġkemerahan": 5440,
      "ologis": 5441,
      "ĠFormula": 5442,
      "Ġceritakan": 5443,
      "ĠJamur": 5444,
      "INGGU": 5445,
      "ling": 5446,
      "ĠSeg": 5447,
      "ĠHand": 5448,
      "uhnya": 5449,
      "Ġmembandingkan": 5450,
      "Ġindah": 5451,
      "Ġindikasi": 5452,
      "Ġwajan": 5453,
      "entifikasi": 5454,
      "Ġagresif": 5455,
      "AD": 5456,
      "kalau": 5457,
      "ĠÂ": 5458,
      "ukai": 5459,
      "udukan": 5460,
      "ĠHarus": 5461,
      "impulan": 5462,
      "rea": 5463,
      "Ġdibutuhkan": 5464,
      "Ġrumahan": 5465,
      "Ġkemudahan": 5466,
      "ĠLapisan": 5467,
      "Aturan": 5468,
      "*.": 5469,
      "Ġruas": 5470,
      "Ġperlindungan": 5471,
      "ĠiP": 5472,
      "Ġmenurunkan": 5473,
      "lo": 5474,
      "oul": 5475,
      "aser": 5476,
      "Ġpara": 5477,
      "Ġtenaga": 5478,
      "iknya": 5479,
      "ariasi": 5480,
      "Ġbawahnya": 5481,
      "Ġelastis": 5482,
      "Ġupgrade": 5483,
      "ka": 5484,
      "oice": 5485,
      "paling": 5486,
      "zen": 5487,
      "uningan": 5488,
      "ĠRec": 5489,
      "Ġmenghindari": 5490,
      "Ġmenghilangkan": 5491,
      "press": 5492,
      "Ġmandi": 5493,
      "Ġkreatif": 5494,
      "Par": 5495,
      "husus": 5496,
      "minggu": 5497,
      "emas": 5498,
      "ĠBentuk": 5499,
      "ĠKering": 5500,
      "tra": 5501,
      "ĠFor": 5502,
      "Ġlilitan": 5503,
      "ĠArwana": 5504,
      "Saran": 5505,
      "erang": 5506,
      "Ġdem": 5507,
      "ikro": 5508,
      "irect": 5509,
      "800": 5510,
      "Tan": 5511,
      "ajin": 5512,
      "akaian": 5513,
      "ical": 5514,
      "Ġmelindungi": 5515,
      "anjur": 5516,
      "Ġtrack": 5517,
      "Ġdirawat": 5518,
      "aktunya": 5519,
      "Ġtelentang": 5520,
      "Ġabu": 5521,
      "ĠBukannya": 5522,
      "Ġblok": 5523,
      "jamur": 5524,
      "Ġprogres": 5525,
      "scape": 5526,
      "Ġbec": 5527,
      "Ġced": 5528,
      "esc": 5529,
      "ĠKombinasi": 5530,
      "Ġmakrame": 5531,
      "Ġlogo": 5532,
      "ĠSheets": 5533,
      "Ġpemasangan": 5534,
      "\":": 5535,
      "ht": 5536,
      "ze": 5537,
      "Ġaf": 5538,
      "Ġkub": 5539,
      "akapan": 5540,
      "itkan": 5541,
      "uri": 5542,
      "ĠHitam": 5543,
      "acanya": 5544,
      "Ġtetep": 5545,
      "Ġspiral": 5546,
      "ĠVersi": 5547,
      "akarta": 5548,
      "Ġpenjelasanmu": 5549,
      "tor": 5550,
      "vy": 5551,
      "ĠSip": 5552,
      "ĠDS": 5553,
      "Ġpengh": 5554,
      "Ġjeruk": 5555,
      "amster": 5556,
      "Ġbocor": 5557,
      "ĠBre": 5558,
      "Ġfolder": 5559,
      "ĠGold": 5560,
      "Ġdibilas": 5561,
      "Ġlogam": 5562,
      "Ġmemperkuat": 5563,
      "Ġbas": 5564,
      "Ġtusukan": 5565,
      "olok": 5566,
      "Ġintinya": 5567,
      "igona": 5568,
      "Ġstok": 5569,
      "Ġpemilihan": 5570,
      "Ġ1078": 5571,
      "ĠAman": 5572,
      "Ġlancip": 5573,
      "Ġbergelombang": 5574,
      "AI": 5575,
      "for": 5576,
      "istal": 5577,
      "ĠNot": 5578,
      "Ġbersihin": 5579,
      "Ġobserv": 5580,
      "Ġmomen": 5581,
      "ĠTahan": 5582,
      "ĠPulau": 5583,
      "Ġmenyel": 5584,
      "Ġroti": 5585,
      "ĠTakut": 5586,
      "YA": 5587,
      "linya": 5588,
      "low": 5589,
      "ring": 5590,
      "Ġgantung": 5591,
      "ĠJANGAN": 5592,
      "ĠUtama": 5593,
      "Ġditambah": 5594,
      "Ġberkurang": 5595,
      "Ġtembaga": 5596,
      "Ġkeker": 5597,
      "AMA": 5598,
      "âĸ¡": 5599,
      "Ġsiapa": 5600,
      "tonia": 5601,
      "Ġperforma": 5602,
      "Ġrapuh": 5603,
      "Ġbundar": 5604,
      "Ġul": 5605,
      "Ġkab": 5606,
      "Ġkadar": 5607,
      "Ġpor": 5608,
      "Ġpetu": 5609,
      "48": 5610,
      "raga": 5611,
      "Ġkangkung": 5612,
      "Ġhancur": 5613,
      "Ġfinal": 5614,
      "eksad": 5615,
      "Ġkatalog": 5616,
      "Ġberguna": 5617,
      "Ġdominan": 5618,
      "arian": 5619,
      "ĠPirus": 5620,
      "Ġmendidih": 5621,
      "Ġtembus": 5622,
      "Ġusia": 5623,
      "Ġseni": 5624,
      "ĠSilica": 5625,
      "mar": 5626,
      "Ġmix": 5627,
      "Ġpameran": 5628,
      "Ġradi": 5629,
      "ĠLog": 5630,
      "indakan": 5631,
      "Ġbike": 5632,
      "Ġtetapi": 5633,
      "Ġdisesuaikan": 5634,
      "ife": 5635,
      "ewa": 5636,
      "Ġjaring": 5637,
      "ĠSolusinya": 5638,
      "eksadana": 5639,
      "nel": 5640,
      "ĠJakarta": 5641,
      "Ġasap": 5642,
      "âĸĳ": 5643,
      "sedur": 5644,
      "jak": 5645,
      "Ġlow": 5646,
      "adisi": 5647,
      "ĠKondisi": 5648,
      "Ġterper": 5649,
      "Ġterangkat": 5650,
      "Ġoff": 5651,
      "screen": 5652,
      "Ġcabai": 5653,
      "Ġpompa": 5654,
      "eliling": 5655,
      "its": 5656,
      "otif": 5657,
      "Ġ17": 5658,
      "ĠOpsi": 5659,
      "Ġdisiram": 5660,
      "Ġdurian": 5661,
      "balik": 5662,
      "date": 5663,
      "Ġpour": 5664,
      "ĠAud": 5665,
      "Ġaktivitas": 5666,
      "ĠCV": 5667,
      "aint": 5668,
      "ĠWeb": 5669,
      "urnt": 5670,
      "Ġmempengaruhi": 5671,
      "enyum": 5672,
      "iplin": 5673,
      ":|:": 5674,
      "sen": 5675,
      "Ġtinta": 5676,
      "edanya": 5677,
      "ĠSantai": 5678,
      "ĠStabil": 5679,
      "Ġkanvas": 5680,
      "Ġsejuk": 5681,
      "Alternatif": 5682,
      "Ġmolekul": 5683,
      "Ġah": 5684,
      "Ġload": 5685,
      "ese": 5686,
      "ilitas": 5687,
      "Ġgelas": 5688,
      "ĠED": 5689,
      "ahami": 5690,
      "ĠSpider": 5691,
      "Ġbayangkan": 5692,
      "sasa": 5693,
      "sheet": 5694,
      "Ġmeningkat": 5695,
      "Ġlapor": 5696,
      "ĠVolume": 5697,
      "Ġraksasa": 5698,
      "Ġsenya": 5699,
      "Soal": 5700,
      "Ġsukses": 5701,
      "Ġulangi": 5702,
      "ĠSkala": 5703,
      "Ġconditioner": 5704,
      "ĠDSLR": 5705,
      "sik": 5706,
      "Ġragi": 5707,
      "ĠTujuannya": 5708,
      "ĠAS": 5709,
      "ĠButuh": 5710,
      "ote": 5711,
      "ĠOb": 5712,
      "Ġdijual": 5713,
      "ĠSuper": 5714,
      "'**": 5715,
      "anasan": 5716,
      "Ġrobusta": 5717,
      "osiasi": 5718,
      "Ġfilm": 5719,
      "Ġtegas": 5720,
      "ding": 5721,
      "mer": 5722,
      "Ġmekan": 5723,
      "Ġrasakan": 5724,
      "agar": 5725,
      "Ġmenguap": 5726,
      "Ġsebuah": 5727,
      "anggap": 5728,
      "Ġkriteria": 5729,
      "rofon": 5730,
      "Ġkutipannya": 5731,
      "att": 5732,
      "Ġlambung": 5733,
      "ĠSering": 5734,
      "ĠTulis": 5735,
      "Ġmenilai": 5736,
      "Ġserb": 5737,
      "ternal": 5738,
      "**ðŁĶ": 5739,
      "ivot": 5740,
      "Ġbeton": 5741,
      "ĠAntagonis": 5742,
      "Ġoleskan": 5743,
      "TB": 5744,
      "ature": 5745,
      "Ġkeempat": 5746,
      "Ġmenetes": 5747,
      "ĠPada": 5748,
      "ĠRoast": 5749,
      "Ġdiperlukan": 5750,
      "elumas": 5751,
      "Ġterpasang": 5752,
      "Ġfungisida": 5753,
      "Ġnon": 5754,
      "ĠPengg": 5755,
      "ĠDok": 5756,
      "angkas": 5757,
      "Ġstarter": 5758,
      "Ġtren": 5759,
      ");": 5760,
      "Selamat": 5761,
      "ness": 5762,
      "uring": 5763,
      "Ġditekan": 5764,
      "Ġdikasih": 5765,
      "Ġturunkan": 5766,
      "ĠAroma": 5767,
      "enggang": 5768,
      "Ġnotebook": 5769,
      "Ġergonomis": 5770,
      "65": 5771,
      "rika": 5772,
      "Â²": 5773,
      "Ġikuti": 5774,
      "Ġpahit": 5775,
      "Ġpelumas": 5776,
      "aduk": 5777,
      "Ġrentang": 5778,
      "indahan": 5779,
      "ondasi": 5780,
      "ANGK": 5781,
      "Ġsand": 5782,
      "Ġbot": 5783,
      "Ġpapan": 5784,
      "Ġmenemukan": 5785,
      "Ġ250": 5786,
      "Ġwangi": 5787,
      "ĠDurasi": 5788,
      "Ġkardus": 5789,
      "Ġmenyatu": 5790,
      "Ġkemampuan": 5791,
      "Ġsutra": 5792,
      "isor": 5793,
      "apisi": 5794,
      "ute": 5795,
      "Ġsetebal": 5796,
      "Ġtekn": 5797,
      "Ġklep": 5798,
      "**âļłï¸ı": 5799,
      "Ġdimasukkan": 5800,
      "HOB": 5801,
      "ĠTER": 5802,
      "Ġmenantang": 5803,
      "ĠCampuran": 5804,
      "Ġsetting": 5805,
      "Ġkedengarannya": 5806,
      "Ġpermukaannya": 5807,
      "Ġkomponen": 5808,
      "Ġpernapasan": 5809,
      "Ġteksturnya": 5810,
      "ĠBPM": 5811,
      "umpulkan": 5812,
      "adisional": 5813,
      "Ġpudar": 5814,
      "Ġlho": 5815,
      "Ġcalisthenics": 5816,
      "Ġgejala": 5817,
      "Ġberurutan": 5818,
      "ĠMINGGU": 5819,
      "omanya": 5820,
      "isiensi": 5821,
      "Ġmelar": 5822,
      "Ġpoly": 5823,
      "Ġmasukin": 5824,
      "Ġdirendam": 5825,
      "arge": 5826,
      "ðŁĶ¥": 5827,
      "ĠBegini": 5828,
      "Ġperhatian": 5829,
      "Ġcedera": 5830,
      "arak": 5831,
      "Ġjal": 5832,
      "ellow": 5833,
      "Ġkafe": 5834,
      "Pas": 5835,
      "Sh": 5836,
      "jen": 5837,
      "mat": 5838,
      "ĠPend": 5839,
      "Ġpanci": 5840,
      "Ġditekuk": 5841,
      "Ġtersisa": 5842,
      "oiler": 5843,
      "Ġpercakapan": 5844,
      "ernih": 5845,
      "Ġbibir": 5846,
      "etching": 5847,
      "Ġdituang": 5848,
      "Ġlaku": 5849,
      "kanan": 5850,
      "ĠAN": 5851,
      "ĠBu": 5852,
      "asif": 5853,
      "Ġketegangan": 5854,
      "Ġkrim": 5855,
      "Ġprosesnya": 5856,
      "Ġbersamaan": 5857,
      "ive": 5858,
      "ra": 5859,
      "elur": 5860,
      "aparan": 5861,
      "ĠTambah": 5862,
      "empatan": 5863,
      "erta": 5864,
      "ency": 5865,
      "ĠORI": 5866,
      "Ġpoint": 5867,
      "Ġibu": 5868,
      "Ġsengaja": 5869,
      "aaf": 5870,
      "ven": 5871,
      "Ġlavender": 5872,
      "Ġroll": 5873,
      "ĠPanel": 5874,
      "Ġinc": 5875,
      "Ġaslinya": 5876,
      "Ġsketsa": 5877,
      "Ġkurs": 5878,
      "Ġlawan": 5879,
      "Ġpoj": 5880,
      "readsheet": 5881,
      "Data": 5882,
      "Ġhub": 5883,
      "Ġmengukur": 5884,
      "Ġmencari": 5885,
      "terior": 5886,
      "Ġcuring": 5887,
      "Biaya": 5888,
      "Ġmenandakan": 5889,
      "ĠOrigami": 5890,
      "free": 5891,
      "tus": 5892,
      "ĠTingkat": 5893,
      "oral": 5894,
      "Ġmenyiram": 5895,
      "ensial": 5896,
      "Ġdirekomendasikan": 5897,
      "Ġkemasan": 5898,
      "Ġsensasi": 5899,
      "Protokol": 5900,
      "ca": 5901,
      "Ġdistribusi": 5902,
      "Ġbandingkan": 5903,
      "ikin": 5904,
      "ĠBunga": 5905,
      "Ġâı": 5906,
      "umat": 5907,
      "Ġmenumpuk": 5908,
      "Ġketemu": 5909,
      "order": 5910,
      "Ġkekurangan": 5911,
      "Ġolah": 5912,
      "UNG": 5913,
      "Tenang": 5914,
      "Ġdiinginkan": 5915,
      "irst": 5916,
      "otik": 5917,
      "ĠLubang": 5918,
      "ðŁĴ": 5919,
      "Ġtriknya": 5920,
      "Ġaudi": 5921,
      "ĠPlank": 5922,
      "Ġriset": 5923,
      "ĠiPhone": 5924,
      "Bagus": 5925,
      "aktif": 5926,
      "ative": 5927,
      "Ġstyl": 5928,
      "ujur": 5929,
      "ashboard": 5930,
      "proach": 5931,
      "Ġkejadian": 5932,
      "pukat": 5933,
      "eaker": 5934,
      "ĠSabun": 5935,
      "rips": 5936,
      "aturan": 5937,
      "Ġcontrol": 5938,
      "ĠPR": 5939,
      "ĠLe": 5940,
      "Ġbic": 5941,
      "Ġsebutkan": 5942,
      "Ġalasan": 5943,
      "Ġsusun": 5944,
      "Ġmirrorless": 5945,
      "Ġgestur": 5946,
      "ĠOmong": 5947,
      "Nama": 5948,
      "ful": 5949,
      "Ġpulang": 5950,
      "etar": 5951,
      "Ġjag": 5952,
      "iringan": 5953,
      "âĶľ": 5954,
      "Ġ400": 5955,
      "Ġkelompok": 5956,
      "Ġekspl": 5957,
      "Ġpose": 5958,
      "Ġresidu": 5959,
      "Ġtumit": 5960,
      "oord": 5961,
      "Ġgener": 5962,
      "ĠBody": 5963,
      "ĠPenyebab": 5964,
      "ĠCahaya": 5965,
      "Ġwaris": 5966,
      "Ġmengisi": 5967,
      "yakin": 5968,
      "Ġpemakaian": 5969,
      "ĠBerat": 5970,
      "ĠArtikel": 5971,
      "Posisi": 5972,
      "Uk": 5973,
      "door": 5974,
      "Ġtal": 5975,
      "ale": 5976,
      "Ġfinishing": 5977,
      "Ġmemicu": 5978,
      "opedia": 5979,
      "ĠNitrat": 5980,
      "Ġbaiknya": 5981,
      "ĠPerawatan": 5982,
      "Ġaerasi": 5983,
      "Ġdicuci": 5984,
      "Ġmusuh": 5985,
      "Ġedit": 5986,
      "asiswa": 5987,
      "tle": 5988,
      "aster": 5989,
      "amaku": 5990,
      "ĠTanda": 5991,
      "ĠTIDAK": 5992,
      "ire": 5993,
      "ĠMeja": 5994,
      "Ġpemulihan": 5995,
      "Ġmenyimpan": 5996,
      "ĠSpiral": 5997,
      "arganya": 5998,
      "Ġacak": 5999,
      "Ġlatex": 6000,
      "Ġkafein": 6001,
      "jika": 6002,
      "ĠKusudama": 6003,
      "embapan": 6004,
      "Ket": 6005,
      "Ġbola": 6006,
      "ĠIN": 6007,
      "anduan": 6008,
      "Ġmemantul": 6009,
      "Ġdibuang": 6010,
      "Ġantib": 6011,
      "Ġmikrofiber": 6012,
      "memb": 6013,
      "Ġhorm": 6014,
      "Ġmembangun": 6015,
      "Ġsekam": 6016,
      "Ġpengisi": 6017,
      "Ġasisten": 6018,
      "arden": 6019,
      "ĠSemakin": 6020,
      "ĠAngkat": 6021,
      "Ġkurat": 6022,
      "Ġcolor": 6023,
      "esaikan": 6024,
      "utusan": 6025,
      "ĠPenting": 6026,
      "ĠRina": 6027,
      "Ġspray": 6028,
      "Ġseorang": 6029,
      "Ġpaksa": 6030,
      "Ġterjemahannya": 6031,
      "Ġacid": 6032,
      "Ġmotif": 6033,
      "ĠSenin": 6034,
      "by": 6035,
      "dro": 6036,
      "ĠKopi": 6037,
      "olos": 6038,
      "ungu": 6039,
      "ĠHD": 6040,
      "ayar": 6041,
      "Ġgrup": 6042,
      "untungan": 6043,
      "Ġwhite": 6044,
      "Ġdiskusi": 6045,
      "*\"": 6046,
      "bener": 6047,
      "flik": 6048,
      "py": 6049,
      "Ġpikiran": 6050,
      "aph": 6051,
      "ĠTengah": 6052,
      "ĠBenar": 6053,
      "ĠKamera": 6054,
      "empah": 6055,
      "Ġpandangan": 6056,
      "Ġpersonal": 6057,
      "ĠðŁĶ¥": 6058,
      "ĠTempelkan": 6059,
      "Sesi": 6060,
      "akban": 6061,
      "ĠPola": 6062,
      "entik": 6063,
      "ĠGPS": 6064,
      "Ġngob": 6065,
      "Ġmerambat": 6066,
      "ĠEN": 6067,
      "ĠTentukan": 6068,
      "Ġsuspensi": 6069,
      "|-------|--------": 6070,
      "Ġuntung": 6071,
      "Ġmemasukkan": 6072,
      "ound": 6073,
      "Ġpaper": 6074,
      "udahkan": 6075,
      "ĠLo": 6076,
      "Ġkeran": 6077,
      "------": 6078,
      "Ġterbesar": 6079,
      "Ġmendorong": 6080,
      "Ġizin": 6081,
      "Ġmanajemen": 6082,
      "Ġbecause": 6083,
      "ght": 6084,
      "seb": 6085,
      "utus": 6086,
      "Ġnol": 6087,
      "Ġnitrogen": 6088,
      "upukan": 6089,
      "Ġkarang": 6090,
      "igasi": 6091,
      "ajarkan": 6092,
      "Ġdengerin": 6093,
      "Mari": 6094,
      "ursi": 6095,
      "ĠHijau": 6096,
      "Ġbuatan": 6097,
      "Ġsendi": 6098,
      "Ġdigantung": 6099,
      "illing": 6100,
      "Ġtermometer": 6101,
      "ovasi": 6102,
      "Ġpojok": 6103,
      "jt": 6104,
      "adanya": 6105,
      "Ġpemilik": 6106,
      "Ġbatch": 6107,
      "ĠKarpet": 6108,
      "Ġcerah": 6109,
      "Ġberkala": 6110,
      "Ġcacat": 6111,
      "Ġpenyebabnya": 6112,
      "encanakan": 6113,
      "Ġproporsional": 6114,
      "AJIB": 6115,
      "void": 6116,
      "Ġikat": 6117,
      "Ġlahan": 6118,
      "ĠBack": 6119,
      "ĠKaki": 6120,
      "ĠPegang": 6121,
      "Ġberani": 6122,
      "ĠLepas": 6123,
      "iganya": 6124,
      "ĠðŁ§": 6125,
      "ombuch": 6126,
      "Ġoutdoor": 6127,
      "Ġclean": 6128,
      "Template": 6129,
      "ie": 6130,
      "Ġtone": 6131,
      "ette": 6132,
      "Ġcast": 6133,
      "ĠSisa": 6134,
      "ĠKenari": 6135,
      "Ġperasaan": 6136,
      "Ġ29": 6137,
      "ĠCl": 6138,
      "Ġwaktunya": 6139,
      "ajaran": 6140,
      "acement": 6141,
      "efore": 6142,
      "Ġdisiplin": 6143,
      "Ġtelat": 6144,
      "ustralian": 6145,
      "Kekhawatiran": 6146,
      "Ġbid": 6147,
      "emasan": 6148,
      "abol": 6149,
      "ĠRendah": 6150,
      "Ġmengarah": 6151,
      "ech": 6152,
      "ĠWall": 6153,
      "Ġ75": 6154,
      "Ġuse": 6155,
      "Ġpeta": 6156,
      "ĠMinimal": 6157,
      "Ġmahasiswa": 6158,
      "Ġanggaran": 6159,
      "Ġmeresap": 6160,
      "Tok": 6161,
      "mem": 6162,
      "arurat": 6163,
      "Ġdorong": 6164,
      "Ġmetr": 6165,
      "Ġpagar": 6166,
      "omat": 6167,
      "ĠHarganya": 6168,
      "ingkatan": 6169,
      "Ġoptik": 6170,
      "Ġrepress": 6171,
      "weight": 6172,
      "ĠKesehatan": 6173,
      "ocaching": 6174,
      "iasa": 6175,
      "lemen": 6176,
      "ĠSis": 6177,
      "Ġmengunci": 6178,
      "Ġlubangnya": 6179,
      "ĠMembuat": 6180,
      "Paling": 6181,
      "ser": 6182,
      "valuasi": 6183,
      "yp": 6184,
      "Ġjernih": 6185,
      "Ġgosok": 6186,
      "ĠBantal": 6187,
      "sistem": 6188,
      "osting": 6189,
      "opsi": 6190,
      "Ġtrick": 6191,
      "Ġtempo": 6192,
      "Ġtricky": 6193,
      "fect": 6194,
      "ux": 6195,
      "aspada": 6196,
      "Ġtol": 6197,
      "alih": 6198,
      "unuh": 6199,
      "Ġjemur": 6200,
      "Ġnil": 6201,
      "ĠBiru": 6202,
      "ube": 6203,
      "atio": 6204,
      "Ġpreferensi": 6205,
      "Ġterlanjur": 6206,
      "Ġmendarat": 6207,
      "Ġemosional": 6208,
      "Ġkebersihan": 6209,
      "sum": 6210,
      "edam": 6211,
      "acteri": 6212,
      "ĠOver": 6213,
      "Ġsekolah": 6214,
      "Ġlayout": 6215,
      "Ġikl": 6216,
      "elamatan": 6217,
      "Ġahli": 6218,
      "acterial": 6219,
      "Versi": 6220,
      "cukup": 6221,
      "pu": 6222,
      "ergi": 6223,
      "Ġda": 6224,
      "onton": 6225,
      "Ġmanusia": 6226,
      "Ġnafas": 6227,
      "fat": 6228,
      "Ġmal": 6229,
      "adak": 6230,
      "ekali": 6231,
      "ĠKr": 6232,
      "idifier": 6233,
      "upan": 6234,
      "ibatnya": 6235,
      "Ġsekalian": 6236,
      "ĠPrinsip": 6237,
      "Ġchecklistnya": 6238,
      "ĠAkibatnya": 6239,
      "Ġilm": 6240,
      "ĠHRD": 6241,
      "Ġkegagalan": 6242,
      "etas": 6243,
      "ĠRekomendasi": 6244,
      "ampan": 6245,
      "ĠGen": 6246,
      "Ġmemudahkan": 6247,
      "Ġarabika": 6248,
      "Ġfluktuasi": 6249,
      "Ġplant": 6250,
      "Ġusahakan": 6251,
      "ĠJepitan": 6252,
      "Ang": 6253,
      "tail": 6254,
      "Ġmoss": 6255,
      "ĠTertarik": 6256,
      "osan": 6257,
      "osen": 6258,
      "Ġprosedur": 6259,
      "Ġaliran": 6260,
      "Ġtetangga": 6261,
      "ENARI": 6262,
      "Ġmeskipun": 6263,
      "ĠâŃĲâŃĲâŃĲ": 6264,
      "Ġolahraga": 6265,
      "pin": 6266,
      "wool": 6267,
      "ahi": 6268,
      "eti": 6269,
      "antinya": 6270,
      "ule": 6271,
      "ĠMac": 6272,
      "idge": 6273,
      "angkak": 6274,
      "Ġmenggambar": 6275,
      "ĠMakanya": 6276,
      "Ġlarut": 6277,
      "ĠScr": 6278,
      "XX": 6279,
      "cs": 6280,
      "arikan": 6281,
      "Ġmist": 6282,
      "akura": 6283,
      "ele": 6284,
      "Ġroad": 6285,
      "ĠSecara": 6286,
      "ĠKunci": 6287,
      "amper": 6288,
      "ĠLampu": 6289,
      "Ġtradisional": 6290,
      "Ġditaruh": 6291,
      "Ġshot": 6292,
      "poinnya": 6293,
      "Ġboros": 6294,
      "ĠKalimat": 6295,
      "22": 6296,
      "erima": 6297,
      "Ġdudukan": 6298,
      "Ġtea": 6299,
      "Ġrawat": 6300,
      "okelat": 6301,
      "ĠRum": 6302,
      "ĠDetail": 6303,
      "Ġmembandel": 6304,
      "uasai": 6305,
      "Ġbertemu": 6306,
      "Ġlengkung": 6307,
      "Ġmodul": 6308,
      "Ġpenjelasannya": 6309,
      "EKN": 6310,
      "ĠPANEL": 6311,
      "IP": 6312,
      "Ġ{": 6313,
      "Ġmenangkap": 6314,
      "ĠMudah": 6315,
      "ĠMic": 6316,
      "Ġmerasakan": 6317,
      "ĠNPK": 6318,
      "enangkan": 6319,
      "afon": 6320,
      "Ġterbiasa": 6321,
      "Ġoksid": 6322,
      "Ġribuan": 6323,
      "iplock": 6324,
      "ĠTerbatas": 6325,
      "dtk": 6326,
      "Ġbil": 6327,
      "Ġbud": 6328,
      "Ġkag": 6329,
      "ĠRose": 6330,
      "Ġsektor": 6331,
      "Ġgrav": 6332,
      "Ġkaktus": 6333,
      "ĠPerm": 6334,
      "Ġtersembunyi": 6335,
      "Ġsabar": 6336,
      "Ġquilling": 6337,
      "Ġrespon": 6338,
      "ombucha": 6339,
      "19": 6340,
      "foto": 6341,
      "kes": 6342,
      "Ġtomat": 6343,
      "Ġcitr": 6344,
      "Ġkeuangan": 6345,
      "Ġspons": 6346,
      "ensif": 6347,
      "ĠðŁĶ´": 6348,
      "ĠLilin": 6349,
      "ras": 6350,
      "âļłï¸ı": 6351,
      "Ġanc": 6352,
      "Ġurut": 6353,
      "okeh": 6354,
      "ĠHitung": 6355,
      "Ġpenilai": 6356,
      "Ġterbalik": 6357,
      "Ġkertasnya": 6358,
      "ĠPantesan": 6359,
      "rad": 6360,
      "Ġsant": 6361,
      "Ġsenter": 6362,
      "Ġbolak": 6363,
      "Ġboiler": 6364,
      "Ġkau": 6365,
      "Ġtight": 6366,
      "alkan": 6367,
      "Ġdiap": 6368,
      "Ġcode": 6369,
      "Ġcocopeat": 6370,
      "ĠTipe": 6371,
      "Ġfondasi": 6372,
      "ongkr": 6373,
      "andangan": 6374,
      "Ġmenyembunyikan": 6375,
      "Ġmencatat": 6376,
      "Ġusaha": 6377,
      "itrit": 6378,
      "Ġsystem": 6379,
      "ermal": 6380,
      "Ġgesekan": 6381,
      "Ġngobrol": 6382,
      "Peng": 6383,
      "erita": 6384,
      "Ġjudul": 6385,
      "ĠSquat": 6386,
      "ĠTim": 6387,
      "Ġgaransi": 6388,
      "ĠMod": 6389,
      "awarkan": 6390,
      "ĠIPK": 6391,
      "ĠCup": 6392,
      "Ġsebanyak": 6393,
      "ĠNilai": 6394,
      "ĠVoice": 6395,
      "Ġketebalan": 6396,
      "Ġmendesain": 6397,
      "Ġpandang": 6398,
      "Ġkonteks": 6399,
      "Ġmemperl": 6400,
      "Kelompok": 6401,
      "(\"": 6402,
      "250": 6403,
      "gara": 6404,
      "lap": 6405,
      "Ġdiw": 6406,
      "Ġgara": 6407,
      "Ġsebesar": 6408,
      "ocket": 6409,
      "Ġplafon": 6410,
      "Ġklaim": 6411,
      "ĠUSD": 6412,
      "Ġjelek": 6413,
      "ĠTokopedia": 6414,
      "EP": 6415,
      "iasaan": 6416,
      "angin": 6417,
      "ĠAD": 6418,
      "irc": 6419,
      "idroponik": 6420,
      "intesis": 6421,
      "Ġberlubang": 6422,
      "ĠSpesif": 6423,
      "Ġspesifikasi": 6424,
      "Ġhandstand": 6425,
      "Ġfotonya": 6426,
      "Ġsunscreen": 6427,
      "ĠHalf": 6428,
      "Panel": 6429,
      "gas": 6430,
      "pun": 6431,
      "pura": 6432,
      "Ġlens": 6433,
      "ĠBelum": 6434,
      "idrasi": 6435,
      "Ġfinder": 6436,
      "ĠInilah": 6437,
      "Ġpemutih": 6438,
      "Ġketika": 6439,
      "Ġnyala": 6440,
      "**ðŁĮ": 6441,
      "Ġpinggang": 6442,
      "Ġinternet": 6443,
      "Ġgemetar": 6444,
      "Ġcutter": 6445,
      "Ġworth": 6446,
      "ĠKakashi": 6447,
      "Caranya": 6448,
      "Ġped": 6449,
      "usun": 6450,
      "Ġroast": 6451,
      "Ġnunggu": 6452,
      "Ġmenembus": 6453,
      "ĠPagi": 6454,
      "aby": 6455,
      "ĠCetak": 6456,
      "Ġsebelah": 6457,
      "Ġtanganku": 6458,
      "Ġpolis": 6459,
      "Ġtepian": 6460,
      "ausa": 6461,
      "Ġcontain": 6462,
      "Ġkomunitas": 6463,
      "âĸĳâĸĳ": 6464,
      "dis": 6465,
      "mener": 6466,
      "Ġone": 6467,
      "Ġdianggap": 6468,
      "ĠSamp": 6469,
      "ĠDouble": 6470,
      "Ġmembatik": 6471,
      "Ġsekat": 6472,
      "Ġsemester": 6473,
      "Ġdibawa": 6474,
      "Ġmainan": 6475,
      "Ġsimetris": 6476,
      "Kesalahan": 6477,
      "Mengapa": 6478,
      "17": 6479,
      "Fa": 6480,
      "KAN": 6481,
      "ruc": 6482,
      "amin": 6483,
      "elv": 6484,
      "esh": 6485,
      "Ġmenanam": 6486,
      "Ġmenonjol": 6487,
      "ĠPin": 6488,
      "ĠMana": 6489,
      "ĠMites": 6490,
      "ĠMTB": 6491,
      "Ġwor": 6492,
      "ocal": 6493,
      "Ġprov": 6494,
      "Ġpembeli": 6495,
      "ĠCampurkan": 6496,
      "Ġsoftware": 6497,
      "rucosum": 6498,
      "Ġbetul": 6499,
      "Ġmampu": 6500,
      "ukum": 6501,
      "Ġgarden": 6502,
      "Ġketuk": 6503,
      "Ġkarpet": 6504,
      "Ġtree": 6505,
      "uncing": 6506,
      "stimasi": 6507,
      "ĠĠĠĠĠĠĠĠĠĠĠĠĠ": 6508,
      "Ġindeks": 6509,
      "Ġredup": 6510,
      "askah": 6511,
      "IPS": 6512,
      "bilitas": 6513,
      "lon": 6514,
      "Ġsn": 6515,
      "Ġsummary": 6516,
      "ĠmAh": 6517,
      "Ġlelah": 6518,
      "eteksi": 6519,
      "ecision": 6520,
      "ĠFitur": 6521,
      "Ġpanen": 6522,
      "Ġbotolnya": 6523,
      "Ġbulanan": 6524,
      "Ġmenyusun": 6525,
      "menerus": 6526,
      "OS": 6527,
      "rup": 6528,
      "Ġsarang": 6529,
      "Ġbumbu": 6530,
      "Ġpuncak": 6531,
      "Ġlangka": 6532,
      "Ġcore": 6533,
      "Ġhip": 6534,
      "ĠCuci": 6535,
      "ĠDH": 6536,
      "Ġkelelahan": 6537,
      "iff": 6538,
      "ĠStep": 6539,
      "Ġprogram": 6540,
      "Ġgetaran": 6541,
      "Ġdist": 6542,
      "enuhi": 6543,
      "Ġtap": 6544,
      "ulam": 6545,
      "ĠLari": 6546,
      "ĠBerdiri": 6547,
      "ĠGrid": 6548,
      "ĠNaruto": 6549,
      "KB": 6550,
      "lar": 6551,
      "Ġnampan": 6552,
      "acu": 6553,
      "Ġraket": 6554,
      "Ġjalur": 6555,
      "Ciri": 6556,
      "Tes": 6557,
      "tengah": 6558,
      "Ġtentukan": 6559,
      "Ġlike": 6560,
      "Ġrestorasi": 6561,
      "Ġhom": 6562,
      "Ġadik": 6563,
      "Ġaromanya": 6564,
      "ĠNeg": 6565,
      "Ġterjaga": 6566,
      "Ġmatikan": 6567,
      "Ġrekam": 6568,
      "Ġsubjek": 6569,
      "âĺĲ": 6570,
      "Ġmetabol": 6571,
      "Formula": 6572,
      "OP": 6573,
      "Pilih": 6574,
      "cel": 6575,
      "mati": 6576,
      "Ġpivot": 6577,
      "Ġtuk": 6578,
      "Ġgading": 6579,
      "Ġnaskah": 6580,
      "ĠBub": 6581,
      "ĠWajib": 6582,
      "ĠPress": 6583,
      "Ġblur": 6584,
      "Ġteknisnya": 6585,
      "ĠPembaca": 6586,
      "tanpa": 6587,
      "Ġdownload": 6588,
      "Ġteknologi": 6589,
      "32": 6590,
      "feksi": 6591,
      "resi": 6592,
      "Ġer": 6593,
      "annel": 6594,
      "isahkan": 6595,
      "Ġche": 6596,
      "agon": 6597,
      "ĠPindahkan": 6598,
      "isial": 6599,
      "Ġmelompat": 6600,
      "Ġ800": 6601,
      "Ġdirancang": 6602,
      "weet": 6603,
      "Ġobservasi": 6604,
      "duc": 6605,
      "iasan": 6606,
      "Ġcar": 6607,
      "ĠTemb": 6608,
      "oratif": 6609,
      "ĠBatang": 6610,
      "ĠRed": 6611,
      "Ġ65": 6612,
      "Ġditanya": 6613,
      "ĠTrus": 6614,
      "Ġengsel": 6615,
      "EKNIK": 6616,
      "Perb": 6617,
      "hod": 6618,
      "vel": 6619,
      "Ġyakin": 6620,
      "Ġpangg": 6621,
      "essi": 6622,
      "ĠSilang": 6623,
      "Ġgantungan": 6624,
      "ertical": 6625,
      "Ġmelun": 6626,
      "Ġakarnya": 6627,
      "Ġeduk": 6628,
      "Ġediting": 6629,
      "Ġcharger": 6630,
      "ĠPerbedaan": 6631,
      "ĠMasalahnya": 6632,
      "Ġnarasi": 6633,
      "La": 6634,
      "OD": 6635,
      "ffer": 6636,
      "hot": 6637,
      "merah": 6638,
      "ero": 6639,
      "Ġpil": 6640,
      "Ġtampilan": 6641,
      "ĠBER": 6642,
      "ĠRel": 6643,
      "ĠOt": 6644,
      "Ġdijepit": 6645,
      "Ġbubble": 6646,
      "yalakan": 6647,
      "ENARIO": 6648,
      "Daun": 6649,
      "tahun": 6650,
      "Ġmuka": 6651,
      "ĠSir": 6652,
      "ĠBedanya": 6653,
      "ĠGunting": 6654,
      "ĠFit": 6655,
      "Ġmenjahit": 6656,
      "lasan": 6657,
      "Ġdataran": 6658,
      "ĠTanam": 6659,
      "ffalo": 6660,
      "ault": 6661,
      "iver": 6662,
      "teknik": 6663,
      "erit": 6664,
      "ents": 6665,
      "Ġkarat": 6666,
      "Ġmendadak": 6667,
      "ĠTrigona": 6668,
      "Ġnegosiasi": 6669,
      "Ġburam": 6670,
      "ANGKAH": 6671,
      "dalam": 6672,
      "etan": 6673,
      "Ġberturut": 6674,
      "lass": 6675,
      "Ġringkaskan": 6676,
      "Ġbeku": 6677,
      "Ġaus": 6678,
      "ĠAktif": 6679,
      "ushion": 6680,
      "azz": 6681,
      "Ġamla": 6682,
      "Ġdryer": 6683,
      "Ġmarketplace": 6684,
      "ellowing": 6685,
      "Risiko": 6686,
      "yzen": 6687,
      "Ġsquare": 6688,
      "akaan": 6689,
      "Ġneed": 6690,
      "ĠPEN": 6691,
      "ĠMet": 6692,
      "Ġmengelupas": 6693,
      "ĠGe": 6694,
      "Ġsetahun": 6695,
      "Ġpenutup": 6696,
      "ensor": 6697,
      "masalah": 6698,
      "Ġmentah": 6699,
      "OHC": 6700,
      "aunya": 6701,
      "Ġsentuhan": 6702,
      "Ġborder": 6703,
      "aly": 6704,
      "itter": 6705,
      "Ġhas": 6706,
      "Ġ(*": 6707,
      "ĠLihat": 6708,
      "turn": 6709,
      "Ġkekuningan": 6710,
      "rysum": 6711,
      "elanoch": 6712,
      "elanochrysum": 6713,
      "tapi": 6714,
      "asp": 6715,
      "Ġpukulan": 6716,
      "iss": 6717,
      "ikTok": 6718,
      "uksi": 6719,
      "Ġgood": 6720,
      "embalikan": 6721,
      "ĠIs": 6722,
      "ective": 6723,
      "tras": 6724,
      "Ġkedalaman": 6725,
      "Ġbergeser": 6726,
      "Ġpaket": 6727,
      "ĠQu": 6728,
      "time": 6729,
      "ĠÃ": 6730,
      "alangan": 6731,
      "Ġ120": 6732,
      "Ġadegan": 6733,
      "ĠJari": 6734,
      "âĶĢâĶĢâĶĢâĶĢâĶĢâĶĢâĶ": 6735,
      "Ġpelet": 6736,
      "azy": 6737,
      "Ġmengerut": 6738,
      "Ġentry": 6739,
      "Ġlakuin": 6740,
      "iwa": 6741,
      "sis": 6742,
      "ansi": 6743,
      "Ġpaparan": 6744,
      "Ġpiringan": 6745,
      "akta": 6746,
      "ekusi": 6747,
      "esuai": 6748,
      "Ġgosong": 6749,
      "Ġwatt": 6750,
      "antum": 6751,
      "Ġoperasi": 6752,
      "ĠMasing": 6753,
      "apaian": 6754,
      "Ġsterilisasi": 6755,
      "Ukuran": 6756,
      "Vinyl": 6757,
      "ked": 6758,
      "mel": 6759,
      "rit": 6760,
      "wik": 6761,
      "Ġamb": 6762,
      "Ġtangk": 6763,
      "Ġjoran": 6764,
      "Ġhave": 6765,
      "epeda": 6766,
      "asiun": 6767,
      "ĠCore": 6768,
      "empurna": 6769,
      "osintesis": 6770,
      "alisme": 6771,
      "ĠDisarankan": 6772,
      "Ġrekaman": 6773,
      "Ġbreath": 6774,
      "Ġcharging": 6775,
      "engkeram": 6776,
      "ongkrong": 6777,
      "Cahaya": 6778,
      "degan": 6779,
      "âľ": 6780,
      "Ġdead": 6781,
      "usikan": 6782,
      "Ġlolos": 6783,
      "Ġdidi": 6784,
      "ĠBener": 6785,
      "Ġmenya": 6786,
      "Ġvirus": 6787,
      "Ġmelainkan": 6788,
      "Ġdipindah": 6789,
      "Ġpengunjung": 6790,
      "Ġmakro": 6791,
      "Ġdicetak": 6792,
      "Ġrequ": 6793,
      "Ġitem": 6794,
      "ĠRingkasan": 6795,
      "Ġgrading": 6796,
      "ĠðŁĴª": 6797,
      "ĠKeping": 6798,
      "Ġscroll": 6799,
      "Ġkoper": 6800,
      "Cabang": 6801,
      "lu": 6802,
      "anak": 6803,
      "Ġbisakah": 6804,
      "Ġrupiah": 6805,
      "urahan": 6806,
      "Ġnet": 6807,
      "otting": 6808,
      "eping": 6809,
      "ĠMata": 6810,
      "upakan": 6811,
      "Ġlemah": 6812,
      "Ġisinya": 6813,
      "etrika": 6814,
      "placement": 6815,
      "Ġtabung": 6816,
      "ĠBlack": 6817,
      "Ġrahasia": 6818,
      "ĠLayer": 6819,
      "Kolom": 6820,
      "cap": 6821,
      "Ġlanding": 6822,
      "Ġlaba": 6823,
      "ĠLat": 6824,
      "ĠJujur": 6825,
      "ĠGosok": 6826,
      "ĠOalah": 6827,
      "Ġdipaksa": 6828,
      "----------------": 6829,
      "Ġtelunjuk": 6830,
      "ĠZBP": 6831,
      "aksakan": 6832,
      "Ġslot": 6833,
      "sifikasi": 6834,
      "Ġsignature": 6835,
      "ĠAturan": 6836,
      "ouse": 6837,
      "Ġsifat": 6838,
      "Ġilmiah": 6839,
      "Itu": 6840,
      "Sump": 6841,
      "eem": 6842,
      "¡ï¸ı": 6843,
      "Ġcabut": 6844,
      "ilat": 6845,
      "uke": 6846,
      "Ġmatanya": 6847,
      "Ġiritasi": 6848,
      "Ġikon": 6849,
      "1000": 6850,
      "duanya": 6851,
      "lay": 6852,
      "Ġ`": 6853,
      "Ġsump": 6854,
      "Ġmenambah": 6855,
      "ĠIa": 6856,
      "ĠRT": 6857,
      "ĠLink": 6858,
      "obatan": 6859,
      "Ġsekeliling": 6860,
      "Ġsebut": 6861,
      "Ġselada": 6862,
      "ĠFung": 6863,
      "Ġalpukat": 6864,
      "Ġalergi": 6865,
      "umbat": 6866,
      "Ġklor": 6867,
      "overy": 6868,
      "tivasi": 6869,
      "tick": 6870,
      "Ġkendala": 6871,
      "ĠKekurangan": 6872,
      "Ġsertifikat": 6873,
      "Ġrespons": 6874,
      "Ġdaerah": 6875,
      "agonist": 6876,
      ")?": 6877,
      "laba": 6878,
      "Ġess": 6879,
      "Ġmid": 6880,
      "Ġpec": 6881,
      "ĠKok": 6882,
      "Ġpergi": 6883,
      "endaman": 6884,
      "ĠHead": 6885,
      "adient": 6886,
      "Ġdipake": 6887,
      "Ġindoor": 6888,
      "Ġkondisioner": 6889,
      "Ġtahunan": 6890,
      "argin": 6891,
      "Semua": 6892,
      "goyang": 6893,
      "log": 6894,
      "nama": 6895,
      "Ġruncing": 6896,
      "antara": 6897,
      "Ġkeas": 6898,
      "--|--------": 6899,
      "arac": 6900,
      "icone": 6901,
      "Ġnyeri": 6902,
      "Ġdiletakkan": 6903,
      "ramuka": 6904,
      "Ġimport": 6905,
      "Ġsmooth": 6906,
      "Ġdekoratif": 6907,
      "Ġmenutupi": 6908,
      "eni": 6909,
      "ahas": 6910,
      "Ġrock": 6911,
      "ukir": 6912,
      "ĠKnight": 6913,
      "ĠNama": 6914,
      "Ġprev": 6915,
      "ogen": 6916,
      "encangkan": 6917,
      "Ġmikrofon": 6918,
      "Ġbalkon": 6919,
      "ĠContohnya": 6920,
      "ĠPenj": 6921,
      "Ġfotograf": 6922,
      "ĠEksperimen": 6923,
      "ĠBegitu": 6924,
      "HARI": 6925,
      "TF": 6926,
      "Ġband": 6927,
      "Ġlatih": 6928,
      "Ġ36": 6929,
      "osed": 6930,
      "Ġmemand": 6931,
      "ocol": 6932,
      "ompet": 6933,
      "Ġpendapatan": 6934,
      "Ġkualitasnya": 6935,
      "Ġgravitasi": 6936,
      "arusnya": 6937,
      "Ġdisi": 6938,
      "asiku": 6939,
      "Ġhe": 6940,
      "Ġhamster": 6941,
      "ĠSump": 6942,
      "utter": 6943,
      "ĠMus": 6944,
      "Ġadv": 6945,
      "ĠDarurat": 6946,
      "Ġtertinggi": 6947,
      "**ðŁĴ": 6948,
      "Masalah": 6949,
      "Tolong": 6950,
      "aOH": 6951,
      "code": 6952,
      "Ġderas": 6953,
      "Ġtir": 6954,
      "ings": 6955,
      "ĠSn": 6956,
      "ĠBawah": 6957,
      "ĠLabel": 6958,
      "angsang": 6959,
      "Ġtrip": 6960,
      "ĠAplikasikan": 6961,
      "ĠVitamin": 6962,
      "Ġtransaksi": 6963,
      "Ġesensial": 6964,
      "Ġjawabanmu": 6965,
      "ĠDHH": 6966,
      "eaksi": 6967,
      "iqu": 6968,
      "inger": 6969,
      "ĠTop": 6970,
      "ĠTetap": 6971,
      "ĠKhusus": 6972,
      "Ġaksi": 6973,
      "Ġbereaksi": 6974,
      "egrasi": 6975,
      "Ġterbuat": 6976,
      "Ġmerekam": 6977,
      "Ġpersen": 6978,
      "Ġditerjemahkan": 6979,
      "'t": 6980,
      "Can": 6981,
      "gap": 6982,
      "Ġkue": 6983,
      "Ġpsik": 6984,
      "Ġcenter": 6985,
      "Ġberes": 6986,
      "ĠDaya": 6987,
      "angkuk": 6988,
      "ĠInter": 6989,
      "Ġmelemb": 6990,
      "intangan": 6991,
      "Ġkatalis": 6992,
      "Ġproduktivitas": 6993,
      "Ġbrand": 6994,
      "ĠFormat": 6995,
      "ĠSegera": 6996,
      "Ġterpercaya": 6997,
      "elvet": 6998,
      "eeswax": 6999,
      "ĠTekstur": 7000,
      "Ġperih": 7001,
      "ĠPast": 7002,
      "Ġstatis": 7003,
      "Ġdibiarkan": 7004,
      "ancing": 7005,
      "step": 7006,
      "Ġkesayangan": 7007,
      "Ġpelangg": 7008,
      "Ġdraf": 7009,
      "Ġkompor": 7010,
      "Ġberlapis": 7011,
      "ĠProgr": 7012,
      "ential": 7013,
      "Ġmempertahankan": 7014,
      "Tidak": 7015,
      "bar": 7016,
      "site": 7017,
      "Ġmagn": 7018,
      "ĠDead": 7019,
      "Ġjualan": 7020,
      "ensin": 7021,
      "ally": 7022,
      "Ġlengkapnya": 7023,
      "Ġaction": 7024,
      "ould": 7025,
      "opsional": 7026,
      "Alat": 7027,
      "jar": 7028,
      "Ġec": 7029,
      "Ġcak": 7030,
      "Ġnadanya": 7031,
      "ĠKan": 7032,
      "Ġberada": 7033,
      "andscape": 7034,
      "odenya": 7035,
      "Ġngecek": 7036,
      "ukanya": 7037,
      "Ġkontur": 7038,
      "Ġnyal": 7039,
      "Ġdigabung": 7040,
      "Ġefeknya": 7041,
      "ĠMulailah": 7042,
      "Ġjutaan": 7043,
      "Ġrevisi": 7044,
      "toman": 7045,
      "count": 7046,
      "ĠLemari": 7047,
      "Ġ___________": 7048,
      "ĠRecord": 7049,
      "-|": 7050,
      "Ġungu": 7051,
      "Ġhere": 7052,
      "ĠBak": 7053,
      "ĠFungsi": 7054,
      "Ġserangga": 7055,
      "Ġdiper": 7056,
      "Ġtanganmu": 7057,
      "Ġkomputer": 7058,
      "ĠðŁİ¯": 7059,
      "Bagaimana": 7060,
      "Th": 7061,
      "ism": 7062,
      "iksi": 7063,
      "Ġhukum": 7064,
      "Ġnanya": 7065,
      "ĠKucing": 7066,
      "Ġflat": 7067,
      "Ġmembunuh": 7068,
      "Ġterbaru": 7069,
      "Ġditempatkan": 7070,
      "Ġpositif": 7071,
      "Ġpink": 7072,
      "Ġpulih": 7073,
      "aksasa": 7074,
      "Ġpanelis": 7075,
      "sedang": 7076,
      "ĠResep": 7077,
      "ĠUdara": 7078,
      "ĠWhite": 7079,
      "Setuju": 7080,
      "bahan": 7081,
      "eorang": 7082,
      "Ġtwist": 7083,
      "amuk": 7084,
      "ulat": 7085,
      "Ġnantinya": 7086,
      "ĠBulan": 7087,
      "Ġadanya": 7088,
      "ĠRasanya": 7089,
      "Ġapek": 7090,
      "Ġdibasahi": 7091,
      "Ġkeringat": 7092,
      "Ġtipsnya": 7093,
      "ellac": 7094,
      "Ġinto": 7095,
      "Ġsifatnya": 7096,
      "ĠKonsep": 7097,
      "Parameter": 7098,
      "Ġkaget": 7099,
      "cord": 7100,
      "Ġbambu": 7101,
      "angle": 7102,
      "tum": 7103,
      "yangga": 7104,
      "Ġarwana": 7105,
      "Ġmerangkak": 7106,
      "Ġselisih": 7107,
      "Ġpronasi": 7108,
      "Ġalarm": 7109,
      "Ġbertanya": 7110,
      "ustom": 7111,
      "Ġprogress": 7112,
      "Ġauto": 7113,
      "ĠCanva": 7114,
      "Ġsatunya": 7115,
      "Ġelektronik": 7116,
      "Ġbicara": 7117,
      "ging": 7118,
      "Ġkn": 7119,
      "atah": 7120,
      "Ġmut": 7121,
      "Ġfeed": 7122,
      "ĠHitch": 7123,
      "ĠLegato": 7124,
      "Ġvisor": 7125,
      "Ġprom": 7126,
      "Ġdiberi": 7127,
      "Ġterbukti": 7128,
      "grometer": 7129,
      "Ġpolanya": 7130,
      "Ġnotasi": 7131,
      "**ðŁĵħ": 7132,
      "ORM": 7133,
      "Ġfurnitur": 7134,
      "Ak": 7135,
      "gantung": 7136,
      "lemb": 7137,
      "Ġbefore": 7138,
      "aktur": 7139,
      "Ġdiff": 7140,
      "Ġberisiko": 7141,
      "ĠMi": 7142,
      "Ġ260": 7143,
      "ĠID": 7144,
      "Ġkelas": 7145,
      "Ġsampo": 7146,
      "Ġketidak": 7147,
      "ĠYou": 7148,
      "Ġmemperbaiki": 7149,
      "kret": 7150,
      "Ġsembuh": 7151,
      "presso": 7152,
      "Ġpenilaian": 7153,
      "ĠÃ·": 7154,
      "Bahan": 7155,
      "dit": 7156,
      "kal": 7157,
      "lung": 7158,
      "eset": 7159,
      "ĠBal": 7160,
      "otot": 7161,
      "Ġmerakit": 7162,
      "Ġdipel": 7163,
      "ANT": 7164,
      "Ġpenyok": 7165,
      "Ġkemarin": 7166,
      "Ġmemperb": 7167,
      "IST": 7168,
      "ĠKeempat": 7169,
      "Ġngebantu": 7170,
      "Poin": 7171,
      "Ġdeep": 7172,
      "Ġlangit": 7173,
      "ĠSams": 7174,
      "Ġ(>": 7175,
      "Ġâī": 7176,
      "ĠPramuka": 7177,
      "abaran": 7178,
      "ĠCover": 7179,
      "Ġngeri": 7180,
      "Ġvertical": 7181,
      "ĠEmas": 7182,
      "ĠPersiapan": 7183,
      "Ġalamat": 7184,
      "ĠKeduanya": 7185,
      "Ġlega": 7186,
      "Ġdekorasi": 7187,
      "Ġtaw": 7188,
      "aminasi": 7189,
      "emuan": 7190,
      "antau": 7191,
      "ĠSesuaikan": 7192,
      "ĠMarni": 7193,
      "oky": 7194,
      "ĠRebus": 7195,
      "ĠOn": 7196,
      "ingkali": 7197,
      "Ġmenggabungkan": 7198,
      "Ġpewangi": 7199,
      "Ġpisang": 7200,
      "Pl": 7201,
      "Waktu": 7202,
      "kamu": 7203,
      "samp": 7204,
      "view": 7205,
      "Ġhel": 7206,
      "Ġnambah": 7207,
      "ungau": 7208,
      "ĠPaham": 7209,
      "okasikan": 7210,
      "oding": 7211,
      "Ġbelt": 7212,
      "check": 7213,
      "Ġrumput": 7214,
      "Ġpencapaian": 7215,
      "Ġklanceng": 7216,
      "Ġclose": 7217,
      "ĠFrekuensi": 7218,
      "Ġmelepaskan": 7219,
      "ĠLarimar": 7220,
      "95": 7221,
      "Back": 7222,
      "Dis": 7223,
      "anfaatkan": 7224,
      "Ġlec": 7225,
      "Ġlighting": 7226,
      "Ġjep": 7227,
      "ĠSukulen": 7228,
      "ĠAB": 7229,
      "Ġgede": 7230,
      "ottis": 7231,
      "ĠLompat": 7232,
      "uhannya": 7233,
      "Ġkerasa": 7234,
      "Ġmemasang": 7235,
      "Ġpremi": 7236,
      "edaannya": 7237,
      "Ġstress": 7238,
      "Ġkemati": 7239,
      "Ġfloral": 7240,
      "Ġasalkan": 7241,
      "Ġbising": 7242,
      "Ġjago": 7243,
      "BEL": 7244,
      "kle": 7245,
      "tahan": 7246,
      "ene": 7247,
      "iput": 7248,
      "Ġmenggantung": 7249,
      "Ġketiganya": 7250,
      "Ġkedelai": 7251,
      "Ġsuplemen": 7252,
      "Ġlanjutan": 7253,
      "Ġkristal": 7254,
      "uasana": 7255,
      "Ġmetabolisme": 7256,
      "Ġtukang": 7257,
      "Mulai": 7258,
      "plas": 7259,
      "yb": 7260,
      "Ġdompet": 7261,
      "engat": 7262,
      "Ġhook": 7263,
      "Ġteratur": 7264,
      "ĠRev": 7265,
      "Ġpakaian": 7266,
      "anjurkan": 7267,
      "Ġseduh": 7268,
      "ujung": 7269,
      "Ġdibaca": 7270,
      "Ġoval": 7271,
      "ugh": 7272,
      "Ġkebayang": 7273,
      "Ġminimalis": 7274,
      "Ġberkembang": 7275,
      "Ġbarangnya": 7276,
      "Ġdokumentasi": 7277,
      "Ġfotok": 7278,
      "Ġancaman": 7279,
      "depan": 7280,
      "ega": 7281,
      "Ġme": 7282,
      "iks": 7283,
      "Ġreksadana": 7284,
      "utorial": 7285,
      "acity": 7286,
      "ĠAnalisis": 7287,
      "Ġtempuh": 7288,
      "Ġmenjepit": 7289,
      "Ġkalori": 7290,
      "Ġleaf": 7291,
      "Ġpekerjaan": 7292,
      "Ġmerawatnya": 7293,
      "Ġstylus": 7294,
      "Canister": 7295,
      "PM": 7296,
      "Ġkoord": 7297,
      "ekanan": 7298,
      "ilan": 7299,
      "ĠSinar": 7300,
      "ĠTikTok": 7301,
      "isikonya": 7302,
      "âĢ¦": 7303,
      "ĠATAS": 7304,
      "ĠVerrucosum": 7305,
      "zzle": 7306,
      "Ġdeterjen": 7307,
      "Ġmemantulkan": 7308,
      "Sudah": 7309,
      "gn": 7310,
      "oes": 7311,
      "sela": 7312,
      "ıĨ": 7313,
      "Ġtentu": 7314,
      "alon": 7315,
      "Ġhour": 7316,
      "ĠâĿ": 7317,
      "ĠLensa": 7318,
      "andai": 7319,
      "Ġaplikasikan": 7320,
      "owever": 7321,
      "ĠPertumbuhan": 7322,
      "Ġfrekuensi": 7323,
      "ĠMenit": 7324,
      "Ġsyarat": 7325,
      "ĠKoreksi": 7326,
      "Ġbengkak": 7327,
      "ĠKeringkan": 7328,
      "Min": 7329,
      "Sed": 7330,
      "Tr": 7331,
      "baik": 7332,
      "akkan": 7333,
      "otton": 7334,
      "Ġwash": 7335,
      "Ġmerangsang": 7336,
      "elasin": 7337,
      "ensinya": 7338,
      "engkap": 7339,
      "Ġrumus": 7340,
      "Ġkenyal": 7341,
      "Ġlanjutkan": 7342,
      "ĠSelesai": 7343,
      "ĠPraktis": 7344,
      "Ġcuriga": 7345,
      "ĠðŁŁ¡": 7346,
      "Ġmedan": 7347,
      "Ġmelelehkan": 7348,
      "ĠIntensitas": 7349,
      "Ġkabur": 7350,
      "ikmati": 7351,
      "Ġjiwa": 7352,
      "antong": 7353,
      "angani": 7354,
      "ĠRyzen": 7355,
      "ĠðŁļ": 7356,
      "Ġpembel": 7357,
      "Ġkompres": 7358,
      "Ġlayak": 7359,
      "Ġkusut": 7360,
      "Ġwebbing": 7361,
      "Ġpegal": 7362,
      "Ġmewah": 7363,
      "Ġcooling": 7364,
      "Ke": 7365,
      "Ġkac": 7366,
      "Ġlump": 7367,
      "antom": 7368,
      "ĠPutih": 7369,
      "Ġbermasalah": 7370,
      "Ġpenulis": 7371,
      "Ġbuatin": 7372,
      "Ġsepen": 7373,
      "Ġsemacam": 7374,
      "Ġkonkret": 7375,
      "adaan": 7376,
      "Ġpotensi": 7377,
      "versi": 7378,
      "Ġsesekali": 7379,
      "Ġverifikasi": 7380,
      "imbol": 7381,
      "Ġbersertif": 7382,
      "ĠChi": 7383,
      "Ġclamp": 7384,
      "Ġpresentasi": 7385,
      "Aroma": 7386,
      "ĠMenurutku": 7387,
      "âĶľâĶĢâĶĢâĶĢâĶĢâĶĢâĶĢâĶĢâĶĢâĶĢâĶĢâĶĢâĶĢâĶĢâĶĢâĶĢâĶĢ": 7388,
      "ĠPermukaan": 7389,
      "Kau": 7390,
      "Wh": 7391,
      "jung": 7392,
      "amamu": 7393,
      "Ġlist": 7394,
      "ĠSC": 7395,
      "ĠTemp": 7396,
      "ĠAustralian": 7397,
      "embes": 7398,
      "Ġinterior": 7399,
      "Ġpemanasan": 7400,
      "Ġmenggulung": 7401,
      "Ġtransportasi": 7402,
      "Ġperbedaannya": 7403,
      "Ġlengkungan": 7404,
      "unyinya": 7405,
      "Ġdatanya": 7406,
      "ategi": 7407,
      "ĠThrips": 7408,
      "Ġlepaskan": 7409,
      "Ġmenyusut": 7410,
      "Ġadaptif": 7411,
      "Ġmenurutku": 7412,
      "Ġresponsif": 7413,
      "Fe": 7414,
      "ISI": 7415,
      "Tingkat": 7416,
      "Ġsuasana": 7417,
      "inen": 7418,
      "Ġpasif": 7419,
      "Ġrawan": 7420,
      "ĠSingkat": 7421,
      "utes": 7422,
      "ĠBar": 7423,
      "ĠKecil": 7424,
      "irinya": 7425,
      "Ġfiber": 7426,
      "endali": 7427,
      "ĠLanding": 7428,
      "Ġstaccato": 7429,
      "Ġsteam": 7430,
      "Ġsampul": 7431,
      "Ġtepatnya": 7432,
      "Ġperbaiki": 7433,
      "Ġbright": 7434,
      "ektasi": 7435,
      "elupkan": 7436,
      "encerkan": 7437,
      "Ġbidang": 7438,
      "!).": 7439,
      "Botol": 7440,
      "Fr": 7441,
      "UP": 7442,
      "vron": 7443,
      "Ġuc": 7444,
      "Ġsuar": 7445,
      "usat": 7446,
      "ekati": 7447,
      "Ġrempah": 7448,
      "ĠTekan": 7449,
      "sium": 7450,
      "ĠRah": 7451,
      "ĠGejala": 7452,
      "trans": 7453,
      "Ġkelemahan": 7454,
      "oriosum": 7455,
      "Ġsendirian": 7456,
      "Ġshock": 7457,
      "ĠKetahanan": 7458,
      "ĠKetajaman": 7459,
      "Ġkarakteristik": 7460,
      "ĠUlang": 7461,
      "Ġjerawat": 7462,
      "encananya": 7463,
      "Ġgroove": 7464,
      "ĠSpesifik": 7465,
      "Ġsepenuhnya": 7466,
      "Cocok": 7467,
      "Pola": 7468,
      "Ġmangkuk": 7469,
      "Ġtelah": 7470,
      "apun": 7471,
      "ebakan": 7472,
      "Ġnipis": 7473,
      "ĠBuku": 7474,
      "Ġaksen": 7475,
      "Ġperg": 7476,
      "ĠMonstera": 7477,
      "odi": 7478,
      "truktur": 7479,
      "Ġpenelitian": 7480,
      "ĠWater": 7481,
      "ĠUs": 7482,
      "Ġtrail": 7483,
      "Ġpengaruh": 7484,
      "Ġ600": 7485,
      "ĠĠĠĠĠĠĠĠĠĠĠ": 7486,
      "Ġterstruktur": 7487,
      "ayangin": 7488,
      "ATAN": 7489,
      "Ġpinggiran": 7490,
      "Ġpekerja": 7491,
      "Ġkeyboard": 7492,
      "Ġdidiamkan": 7493,
      "EB": 7494,
      "dr": 7495,
      "lok": 7496,
      "aras": 7497,
      "Ġdynamic": 7498,
      "ased": 7499,
      "ĠAwalnya": 7500,
      "ĠMaterial": 7501,
      "Ġfre": 7502,
      "ĠHold": 7503,
      "rob": 7504,
      "ĠFigure": 7505,
      "Ġkelambu": 7506,
      "ĠEV": 7507,
      "afal": 7508,
      "olding": 7509,
      "Ġdimensi": 7510,
      "Ġscript": 7511,
      "ĠMiniatur": 7512,
      "Ġtagihan": 7513,
      "atrix": 7514,
      "FH": 7515,
      "NA": 7516,
      "SK": 7517,
      "ihkan": 7518,
      "ulkan": 7519,
      "aguna": 7520,
      "ĠPink": 7521,
      "ĠCucuk": 7522,
      "ĠDips": 7523,
      "Ġkeriting": 7524,
      "Ġ55": 7525,
      "tert": 7526,
      "ĠWFH": 7527,
      "Ġserupa": 7528,
      "Ġnyamuk": 7529,
      "adaptasi": 7530,
      "enggam": 7531,
      "erius": 7532,
      "Ġtubuhmu": 7533,
      "Ġpattern": 7534,
      "ression": 7535,
      "Staccato": 7536,
      "Foto": 7537,
      "kata": 7538,
      "ple": 7539,
      "erom": 7540,
      "Ġbaunya": 7541,
      "Ġtarikan": 7542,
      "ilin": 7543,
      "ajah": 7544,
      "Ġalur": 7545,
      "ekomendasiku": 7546,
      "END": 7547,
      "Ġclosed": 7548,
      "Proses": 7549,
      "ĠDrill": 7550,
      "Ġiklim": 7551,
      "Ġlumpur": 7552,
      "85": 7553,
      "Kotak": 7554,
      "Ġkabar": 7555,
      "Ġpick": 7556,
      "Ġtumpul": 7557,
      "Ġdiulang": 7558,
      "ĠAK": 7559,
      "Ġmenusuk": 7560,
      "Ġmenenangkan": 7561,
      "ĠDuduk": 7562,
      "Ġpart": 7563,
      "Ġdrum": 7564,
      "spek": 7565,
      "ross": 7566,
      "Ġrockwool": 7567,
      "'?": 7568,
      "hanya": 7569,
      "Ġanj": 7570,
      "Ġurat": 7571,
      "Ġsayang": 7572,
      "Ġte": 7573,
      "adin": 7574,
      "ukungan": 7575,
      "Ġgsm": 7576,
      "ĠKul": 7577,
      "Ġ26": 7578,
      "Ġsetrika": 7579,
      "ĠNus": 7580,
      "Ġkesabaran": 7581,
      "Ġkeputusan": 7582,
      "Ġpembagian": 7583,
      "Ġfrustrasi": 7584,
      "Ġespresso": 7585,
      "Ġberputar": 7586,
      "Ġtabelnya": 7587,
      "Ġproperti": 7588,
      "Ġmacet": 7589,
      "Ġbaseline": 7590,
      "ount": 7591,
      "Ġday": 7592,
      "Ġdagu": 7593,
      "Ġpihak": 7594,
      "Ġhot": 7595,
      "ĠTempatkan": 7596,
      "Ġwide": 7597,
      "Ġmenyerang": 7598,
      "ucian": 7599,
      "ĠðŁĳ": 7600,
      "Ġseharusnya": 7601,
      "Ġdikirim": 7602,
      "Ġflanel": 7603,
      "Ġblocking": 7604,
      "ĠSederhana": 7605,
      "resh": 7606,
      "Ġinterval": 7607,
      "Ġcabang": 7608,
      "ĠLeaf": 7609,
      "Ġlecet": 7610,
      "44": 7611,
      "hagn": 7612,
      "kg": 7613,
      "kali": 7614,
      "pakai": 7615,
      "sur": 7616,
      "watch": 7617,
      "Ġpay": 7618,
      "ĠSakura": 7619,
      "Ġgul": 7620,
      "ĠPanaskan": 7621,
      "eperom": 7622,
      "Ġwood": 7623,
      "ĠEn": 7624,
      "ertinya": 7625,
      "Ġdibeli": 7626,
      "Ġspin": 7627,
      "Ġ95": 7628,
      "aliknya": 7629,
      "Ġklausa": 7630,
      "Ġsilau": 7631,
      "ĠAmla": 7632,
      "Ġpantau": 7633,
      "Ġpublikasi": 7634,
      "Tanaman": 7635,
      "ĠPrinsipnya": 7636,
      "Kons": 7637,
      "biru": 7638,
      "case": 7639,
      "arahkan": 7640,
      "Ġburu": 7641,
      "ame": 7642,
      "amel": 7643,
      "isit": 7644,
      "Ġinvest": 7645,
      "Ġfirst": 7646,
      "ĠDes": 7647,
      "obi": 7648,
      "Ġsebaliknya": 7649,
      "Ġstatus": 7650,
      "level": 7651,
      "ĠStop": 7652,
      "likasinya": 7653,
      "arnai": 7654,
      "Ġpencegahan": 7655,
      "Ġdehidrasi": 7656,
      "Ġrahang": 7657,
      "Ġkematian": 7658,
      "*,": 7659,
      "Kain": 7660,
      "ger": 7661,
      "suhu": 7662,
      "Ġbensin": 7663,
      "ilaku": 7664,
      "ĠCPU": 7665,
      "ĠRingan": 7666,
      "ĠGPU": 7667,
      "Ġbarunya": 7668,
      "ĠFrame": 7669,
      "Ġpemupukan": 7670,
      "Ġekspr": 7671,
      "Ġmembantumu": 7672,
      "ĠDiameter": 7673,
      "Ġtersend": 7674,
      "ĠDaunnya": 7675,
      "ĠAmplas": 7676,
      "Ġterdiri": 7677,
      "Ġterdekat": 7678,
      "Ġsmart": 7679,
      "ĠTransisi": 7680,
      "ĠCerit": 7681,
      "ĠMesk": 7682,
      "Ġhumidifier": 7683,
      "Ġpetualangan": 7684,
      "67": 7685,
      "Target": 7686,
      "cline": 7687,
      "pH": 7688,
      "sem": 7689,
      "Ġmargin": 7690,
      "Ġpaj": 7691,
      "Ġliburan": 7692,
      "Ġlaut": 7693,
      "tual": 7694,
      "Ġdianjurkan": 7695,
      "Ġhubung": 7696,
      "Ġ(<": 7697,
      "uting": 7698,
      "Ġgap": 7699,
      "oli": 7700,
      "ĠMending": 7701,
      "ember": 7702,
      "ĠRasakan": 7703,
      "ĠTernyata": 7704,
      "Ġpenghasilan": 7705,
      "Ġumur": 7706,
      "Ġyellowing": 7707,
      "nyx": 7708,
      "ĠIdeal": 7709,
      "Ġservice": 7710,
      "Si": 7711,
      "bagian": 7712,
      "garis": 7713,
      "iec": 7714,
      "titik": 7715,
      "Ġbunyinya": 7716,
      "Ġtengk": 7717,
      "Ġtawar": 7718,
      "alem": 7719,
      "ingatan": 7720,
      "imetris": 7721,
      "entikan": 7722,
      "angkasan": 7723,
      "iapkan": 7724,
      "engkeh": 7725,
      "Ġberbunga": 7726,
      "ĠSelf": 7727,
      "Ġshare": 7728,
      "Ġbedain": 7729,
      "Ġphantom": 7730,
      "essive": 7731,
      "EV": 7732,
      "Faktor": 7733,
      "cess": 7734,
      "go": 7735,
      "kertas": 7736,
      "pas": 7737,
      "yth": 7738,
      "asuke": 7739,
      "Ġmay": 7740,
      "Ġtindakan": 7741,
      "Ġraya": 7742,
      "ĠSasuke": 7743,
      "ĠBalik": 7744,
      "idat": 7745,
      "ĠIbu": 7746,
      "Ġbiayanya": 7747,
      "Ġalso": 7748,
      "Ġspreadsheet": 7749,
      "diameter": 7750,
      "Ġefisiensi": 7751,
      "Ġreduc": 7752,
      "ĠSedangkan": 7753,
      "Ġmengerikan": 7754,
      "Ġtoleran": 7755,
      "hagnum": 7756,
      "eperomia": 7757,
      "aih": 7758,
      "dry": 7759,
      "Ġ.": 7760,
      "Ġsug": 7761,
      "Ġtang": 7762,
      "Ġlab": 7763,
      "Ġrenggang": 7764,
      "ĠSemen": 7765,
      "ĠTR": 7766,
      "ĠTaman": 7767,
      "Ġ**'": 7768,
      "ĠMP": 7769,
      "Ġmemul": 7770,
      "ĠNadin": 7771,
      "Ġalatnya": 7772,
      "Ġkondisinya": 7773,
      "Ġkonsumsi": 7774,
      "ĠZON": 7775,
      "emanasan": 7776,
      "Ġdimulai": 7777,
      "Ġekor": 7778,
      "Ġtenggelam": 7779,
      "antumkan": 7780,
      "ĠZONA": 7781,
      "MK": 7782,
      "Ġdikit": 7783,
      "Ġsop": 7784,
      "Ġsentuh": 7785,
      "Ġpura": 7786,
      "Ġtangkai": 7787,
      "ikula": 7788,
      "Ġrisikonya": 7789,
      "Ġberv": 7790,
      "ĠComp": 7791,
      "Ġwall": 7792,
      "Ġmengend": 7793,
      "ambatan": 7794,
      "ĠWAJIB": 7795,
      "ĠNaik": 7796,
      "âķ¯": 7797,
      "Ġditanam": 7798,
      "Ġbath": 7799,
      "putih": 7800,
      "atchet": 7801,
      "Ġamonia": 7802,
      "ĠCerita": 7803,
      "Ġpeserta": 7804,
      "Ġedukasi": 7805,
      "Ġbreathable": 7806,
      "Ġdangkal": 7807,
      "Ġbase": 7808,
      "adwal": 7809,
      "kanya": 7810,
      "Ġ(#": 7811,
      "ĠTinggal": 7812,
      "ĠJawab": 7813,
      "Ġmemudar": 7814,
      "ĠEvaluasi": 7815,
      "Ġsearah": 7816,
      "Ġkebiasaan": 7817,
      "ply": 7818,
      "Ġkonsepnya": 7819,
      "-|--------": 7820,
      "megap": 7821,
      "anum": 7822,
      "Ġkamp": 7823,
      "Ġkukus": 7824,
      "Ġmaj": 7825,
      "Ġpomodoro": 7826,
      "itos": 7827,
      "ĠSort": 7828,
      "ĠKand": 7829,
      "iruan": 7830,
      "ĠPari": 7831,
      "sisten": 7832,
      "ĠCoklat": 7833,
      "acebook": 7834,
      "Ġkerutan": 7835,
      "Ġpenyangga": 7836,
      "Ġpertamanya": 7837,
      "heat": 7838,
      "Ġspeaker": 7839,
      "ĠâķŃ": 7840,
      "Ġvarietas": 7841,
      "azanum": 7842,
      "Ġwhen": 7843,
      "Ġgeom": 7844,
      "Ġpelepasan": 7845,
      "Ġwebsite": 7846,
      "ediakan": 7847,
      "At": 7848,
      "Or": 7849,
      "meny": 7850,
      "Ġsaring": 7851,
      "Ġdiagnosis": 7852,
      "ekar": 7853,
      "ĠTai": 7854,
      "ukit": 7855,
      "ĠBusuk": 7856,
      "ĠPos": 7857,
      "ĠPukul": 7858,
      "Ġmelawan": 7859,
      "Ġmenyiapkan": 7860,
      "Ġdisebabkan": 7861,
      "Ġkepr": 7862,
      "Ġmatch": 7863,
      "Ġkutikula": 7864,
      "Ġthr": 7865,
      "Ġsilicone": 7866,
      "ĠManis": 7867,
      "|-------|": 7868,
      "ĠJaringan": 7869,
      "Ġgaming": 7870,
      "ĠPerbandingan": 7871,
      "posure": 7872,
      "Ġsamar": 7873,
      "Ġdiaduk": 7874,
      "Ġnahan": 7875,
      "eph": 7876,
      "ĠCS": 7877,
      "ĠRabu": 7878,
      "roduksi": 7879,
      "odium": 7880,
      "Ġselera": 7881,
      "Ġstay": 7882,
      "Ġforum": 7883,
      "Ġfresh": 7884,
      "Ġjadinya": 7885,
      "ematik": 7886,
      "Ġkasur": 7887,
      "Semoga": 7888,
      "Ġsafety": 7889,
      "Ġsealant": 7890,
      "ĠAMD": 7891,
      "Ġsenyawa": 7892,
      "gnment": 7893,
      "Ad": 7894,
      "IF": 7895,
      "Sisa": 7896,
      "Zona": 7897,
      "cing": 7898,
      "Ġface": 7899,
      "siap": 7900,
      "ĠJustru": 7901,
      "Ġngatur": 7902,
      "Ġawalnya": 7903,
      "ejalanya": 7904,
      "Ġkuasai": 7905,
      "Ġloose": 7906,
      "ĠIntel": 7907,
      "Ġcreamy": 7908,
      "Ġporos": 7909,
      "BELUM": 7910,
      "ĠNusantara": 7911,
      "Fi": 7912,
      "Ibu": 7913,
      "qual": 7914,
      "anita": 7915,
      "Ġble": 7916,
      "Ġkoran": 7917,
      "Ġlook": 7918,
      "ĠTugas": 7919,
      "Ġfont": 7920,
      "Ġfill": 7921,
      "abisan": 7922,
      "ayaran": 7923,
      "Ġmembawa": 7924,
      "ĠOnyx": 7925,
      "igr": 7926,
      "Ġsedih": 7927,
      "Ġmenyebut": 7928,
      "Ġdikelola": 7929,
      "ĠPilihan": 7930,
      "Ġpendekatan": 7931,
      "ĠKonsistensi": 7932,
      "ahui": 7933,
      "âĶģâĶģâĶģâĶģâĶģâĶģâĶģâĶģâĶģâĶģâĶģâĶģâĶģâĶģâĶģâĶģâĶģâĶģâĶģâĶģâĶģâĶģâĶģâĶģ": 7934,
      "Ġcopper": 7935,
      ",\"": 7936,
      "Kon": 7937,
      "Ġeh": 7938,
      "Ġkuny": 7939,
      "ĠAtas": 7940,
      "ĠBawa": 7941,
      "imut": 7942,
      "ĠMadu": 7943,
      "ĠMelanochrysum": 7944,
      "siun": 7945,
      "Ġwarm": 7946,
      "ĠJati": 7947,
      "ĠJauh": 7948,
      "Ġsekrup": 7949,
      "Ġpensiun": 7950,
      "Ġmenyengat": 7951,
      "ĠAnti": 7952,
      "Ġzat": 7953,
      "engaruh": 7954,
      "ĠSemangat": 7955,
      "Ġbuil": 7956,
      "ments": 7957,
      "menit": 7958,
      "Ġbackup": 7959,
      "ĠðŁĺĦ": 7960,
      "Ġtambahin": 7961,
      "Ġnegara": 7962,
      "Ġburuk": 7963,
      "Ġpekarangan": 7964,
      "Ġcitrus": 7965,
      "esuaian": 7966,
      "Ġeco": 7967,
      "Ġsib": 7968,
      "Ġsaraf": 7969,
      "Ġsarung": 7970,
      "Ġdiubah": 7971,
      "Ġcoding": 7972,
      "Ġhelai": 7973,
      "ĠAy": 7974,
      "ĠKulit": 7975,
      "araan": 7976,
      "Ġmerupakan": 7977,
      "Ġminus": 7978,
      "Ġlemas": 7979,
      "Ġterkendali": 7980,
      "incah": 7981,
      "Ġtunas": 7982,
      "Ġessential": 7983,
      "Ġsibuk": 7984,
      "Mem": 7985,
      "Suhu": 7986,
      "Ġmuter": 7987,
      "alangi": 7988,
      "akuan": 7989,
      "ĠSIM": 7990,
      "organ": 7991,
      "ĠDepan": 7992,
      "Ġngatas": 7993,
      "ĠNaOH": 7994,
      "Ġlangkahnya": 7995,
      "Ġmengganti": 7996,
      "etri": 7997,
      "Ġplug": 7998,
      "Ġsembarangan": 7999,
      "aspadai": 8000,
      "Ġkepribadi": 8001,
      "iotik": 8002,
      "¦âķĲâķĲâķĲâķĲâķĲâķĲâķĲâķ": 8003,
      "©âķĲâķĲâķĲâķĲâķĲâķĲâķĲâķ": 8004,
      "Ġbokeh": 8005,
      "ustik": 8006,
      "eld": 8007,
      "edak": 8008,
      "ĠTanggal": 8009,
      "ĠAsia": 8010,
      "Ġakustik": 8011,
      "omant": 8012,
      "Ġwawancara": 8013,
      "Ġvir": 8014,
      "ðŁıĨ": 8015,
      "Ġstand": 8016,
      "Ġpengec": 8017,
      "stop": 8018,
      "Ġmenggores": 8019,
      "Ġmencanting": 8020,
      "ackline": 8021,
      "Ġmendekati": 8022,
      "anggih": 8023,
      "Ġseharian": 8024,
      "Ġupdate": 8025,
      "Ġsubur": 8026,
      "Ġmetalik": 8027,
      "Ġsisakan": 8028,
      "Kesimpulan": 8029,
      "Ġurusan": 8030,
      "Ġpengisian": 8031,
      "ircles": 8032,
      "PP": 8033,
      "lak": 8034,
      "Ġsah": 8035,
      "Ġtutorial": 8036,
      "Ġlandscape": 8037,
      "adikan": 8038,
      "adinya": 8039,
      "ength": 8040,
      "ebat": 8041,
      "ĠKurangi": 8042,
      "Ġakr": 8043,
      "ĠHowever": 8044,
      "adiah": 8045,
      "Ġmembagi": 8046,
      "Ġmemakan": 8047,
      "Ġserem": 8048,
      "Ġkelima": 8049,
      "Ġdetok": 8050,
      "Ġdiselamatkan": 8051,
      "Ġ85": 8052,
      "acket": 8053,
      "Ġpembuatan": 8054,
      "Ġdikeluarkan": 8055,
      "oney": 8056,
      "Ġtanamnya": 8057,
      "Ġlayer": 8058,
      "ithium": 8059,
      "arator": 8060,
      "Ġglue": 8061,
      "ealyb": 8062,
      "Ġobjektif": 8063,
      "ealybug": 8064,
      "CE": 8065,
      "kaki": 8066,
      "isikan": 8067,
      "ulator": 8068,
      "ĠBox": 8069,
      "asional": 8070,
      "Ġadd": 8071,
      "Ġsetara": 8072,
      "Ġmemanfaatkan": 8073,
      "Ġmeredam": 8074,
      "Ġmind": 8075,
      "Ġminutes": 8076,
      "Ġantis": 8077,
      "umpan": 8078,
      "Ġgores": 8079,
      "sedikit": 8080,
      "ĠScript": 8081,
      "ft": 8082,
      "wajib": 8083,
      "Ġsilang": 8084,
      "Ġmouse": 8085,
      "ikarbon": 8086,
      "apikan": 8087,
      "Ġras": 8088,
      "Ġratio": 8089,
      "Ġgulung": 8090,
      "ĠKiri": 8091,
      "okal": 8092,
      "001": 8093,
      "ĠRaksasa": 8094,
      "âĶĢâĶĢâĶĢâĶ": 8095,
      "ĠNet": 8096,
      "icau": 8097,
      "ĠFilter": 8098,
      "Ġpemandangan": 8099,
      "Ġdibentuk": 8100,
      "engkok": 8101,
      "Ġpembesar": 8102,
      "Ġtersedia": 8103,
      "unjukin": 8104,
      "Ġkapal": 8105,
      "skor": 8106,
      "Ġekspektasi": 8107,
      "efleksi": 8108,
      "eluruhan": 8109,
      "ĠBackground": 8110,
      "Sedang": 8111,
      "ikarbonat": 8112,
      "Bulan": 8113,
      "Double": 8114,
      "hitungan": 8115,
      "ying": 8116,
      "Ġdukungan": 8117,
      "Ġpantai": 8118,
      "Ġhist": 8119,
      "ĠSimulasi": 8120,
      "ĠMengg": 8121,
      "ĠDasar": 8122,
      "roses": 8123,
      "Ġbarcode": 8124,
      "ocus": 8125,
      "Ġmeleset": 8126,
      "Ġmodifikasi": 8127,
      "Ġsejarah": 8128,
      "Ġtokoh": 8129,
      "ĠLapisi": 8130,
      "Ġmendapatkan": 8131,
      "Ġelektrik": 8132,
      "Paper": 8133,
      "Sil": 8134,
      "red": 8135,
      "Ġif": 8136,
      "Ġumpan": 8137,
      "Ġlet": 8138,
      "ĠAh": 8139,
      "ĠBeeswax": 8140,
      "ĠKeber": 8141,
      "Ġfit": 8142,
      "ropa": 8143,
      "Ġmemengaruhi": 8144,
      "ĠWave": 8145,
      "Ġterlepas": 8146,
      "ĠFall": 8147,
      "ĠSetting": 8148,
      "Ġmenghitung": 8149,
      "Ġdicatat": 8150,
      "hats": 8151,
      "olling": 8152,
      "Ġkonsultasi": 8153,
      "Ġkonsultan": 8154,
      "99": 8155,
      "AU": 8156,
      "Kualitas": 8157,
      "No": 8158,
      "hiz": 8159,
      "sl": 8160,
      "Ġsak": 8161,
      "Ġlea": 8162,
      "ĠSimp": 8163,
      "ĠTest": 8164,
      "Ġgila": 8165,
      "Ġterendam": 8166,
      "ĠMatrix": 8167,
      "Ġinisial": 8168,
      "ĠCepat": 8169,
      "Ġ360": 8170,
      "Ġmembusuk": 8171,
      "trait": 8172,
      "daft": 8173,
      "Ġstitch": 8174,
      "ĠBerhasil": 8175,
      "AND": 8176,
      "anced": 8177,
      "charge": 8178,
      "ĠPrint": 8179,
      "Ġpengguna": 8180,
      "aksud": 8181,
      "karena": 8182,
      "Ġhubungan": 8183,
      "Ambil": 8184,
      "Efek": 8185,
      "Pastikan": 8186,
      "TER": 8187,
      "dengan": 8188,
      "Ġdel": 8189,
      "Ġpokok": 8190,
      "Ġlife": 8191,
      "eka": 8192,
      "Ġrancang": 8193,
      "ĠSub": 8194,
      "ĠTAH": 8195,
      "Ġgusi": 8196,
      "epi": 8197,
      "ĠMon": 8198,
      "Ġfe": 8199,
      "ĠIP": 8200,
      "ĠCond": 8201,
      "Ġharinya": 8202,
      "Ġpengingat": 8203,
      "Ġmenjawab": 8204,
      "Ġseseorang": 8205,
      "ubangi": 8206,
      "Ġkatrol": 8207,
      "Ġfrasa": 8208,
      "ival": 8209,
      "iriman": 8210,
      "oksidasi": 8211,
      "ĠScale": 8212,
      "ĠPantau": 8213,
      "Ġoksidasi": 8214,
      "ĠIsolasi": 8215,
      "Ġdiffuser": 8216,
      "Saat": 8217,
      "potong": 8218,
      "ringan": 8219,
      "arp": 8220,
      "Ġdashboard": 8221,
      "Ġburn": 8222,
      "Ġkari": 8223,
      "Ġpaha": 8224,
      "Ġlon": 8225,
      "ĠSurat": 8226,
      "Ġkeuntungan": 8227,
      "Ġberongga": 8228,
      "endek": 8229,
      "ĠJumat": 8230,
      "idaknya": 8231,
      "Ġnge": 8232,
      "Ġmemecah": 8233,
      "Ġself": 8234,
      "Ġharusnya": 8235,
      "Ġkonflik": 8236,
      "Ġpengobatan": 8237,
      "angguan": 8238,
      "enernya": 8239,
      "Ġsegitu": 8240,
      "):*": 8241,
      "Ġottoman": 8242,
      "Ġtegangan": 8243,
      "Ġdihitung": 8244,
      "Ġsound": 8245,
      "Ġalias": 8246,
      "ĠFungsinya": 8247,
      "Tanda": 8248,
      "Ġdot": 8249,
      "Ġsure": 8250,
      "Ġsuit": 8251,
      "Ġlincah": 8252,
      "Ġ(~": 8253,
      "ĠTEKNIK": 8254,
      "ĠAspek": 8255,
      "ĠBintang": 8256,
      "Ġmenawarkan": 8257,
      "Ġmengatasi": 8258,
      "Ġjuara": 8259,
      "Ġpertamamu": 8260,
      "...\"": 8261,
      "aksasi": 8262,
      "Ġbutir": 8263,
      "ĠJarum": 8264,
      "Ġucapan": 8265,
      "Ġkepribadian": 8266,
      "hatsApp": 8267,
      "900": 8268,
      "Over": 8269,
      "dih": 8270,
      "kotak": 8271,
      "pon": 8272,
      "rem": 8273,
      "Ġbung": 8274,
      "Ġpij": 8275,
      "Ġtata": 8276,
      "ĠSimpul": 8277,
      "Ġadmin": 8278,
      "sial": 8279,
      "ĠCiri": 8280,
      "ĠDed": 8281,
      "ĠWi": 8282,
      "anji": 8283,
      "Ġberbau": 8284,
      "Ġpakainya": 8285,
      "ooting": 8286,
      "Ġtergores": 8287,
      "ĠSEBELUM": 8288,
      "rovert": 8289,
      "acuum": 8290,
      "],": 8291,
      "cue": 8292,
      "face": 8293,
      "panjang": 8294,
      "Ġtungau": 8295,
      "Ġdiukir": 8296,
      "Ġrate": 8297,
      "urap": 8298,
      "ulsif": 8299,
      "ĠBikin": 8300,
      "ĠKeg": 8301,
      "Ġberair": 8302,
      "Ġ1000": 8303,
      "ĠListrik": 8304,
      "trak": 8305,
      "Ġapproach": 8306,
      "estay": 8307,
      "Ġpolisi": 8308,
      "Ġthey": 8309,
      "ĠArtinya": 8310,
      "Ġperawatannya": 8311,
      "Skala": 8312,
      "ĠAngin": 8313,
      "Ġnafsu": 8314,
      "otify": 8315,
      "Ġanjing": 8316,
      "Helm": 8317,
      "Ker": 8318,
      "Ġur": 8319,
      "Ġkebal": 8320,
      "**âľħ": 8321,
      "ĠTo": 8322,
      "orning": 8323,
      "ĠKata": 8324,
      "ird": 8325,
      "ĠMB": 8326,
      "Ġsetetes": 8327,
      "Ġprinter": 8328,
      "Ġsampe": 8329,
      "Ġduluan": 8330,
      "illa": 8331,
      "Ġkompet": 8332,
      "egangkan": 8333,
      "ĠKelopak": 8334,
      "Ġfotosintesis": 8335,
      "Siapkan": 8336,
      "Ġketerangan": 8337,
      "ĠCSV": 8338,
      "Desain": 8339,
      "HD": 8340,
      "lian": 8341,
      "Ġdalem": 8342,
      "isaran": 8343,
      "emuran": 8344,
      "Ġditulis": 8345,
      "Ġcium": 8346,
      "Ġcinc": 8347,
      "ekas": 8348,
      "Ġkeinginan": 8349,
      "ĠGor": 8350,
      "Ġpengikat": 8351,
      "Ġnyari": 8352,
      "under": 8353,
      "Ġshould": 8354,
      "Ġsemprotan": 8355,
      "Ġbernama": 8356,
      "For": 8357,
      "Fokus": 8358,
      "ges": 8359,
      "sn": 8360,
      "Ġkado": 8361,
      "Ġren": 8362,
      "ĠSi": 8363,
      "ĠBib": 8364,
      "ĠPajak": 8365,
      "ĠHeat": 8366,
      "ĠCH": 8367,
      "ayu": 8368,
      "ĠFacebook": 8369,
      "Ġmencengkeram": 8370,
      "Ġbertingkat": 8371,
      "Ġberkarat": 8372,
      "pronasi": 8373,
      "Berikut": 8374,
      "Ġsleeper": 8375,
      "Ġsantainya": 8376,
      "ĠGeocaching": 8377,
      "iece": 8378,
      "Bl": 8379,
      "Ġsimbol": 8380,
      "Ġtebak": 8381,
      "Ġhea": 8382,
      "arif": 8383,
      "Ġgatal": 8384,
      "umut": 8385,
      "tig": 8386,
      "roider": 8387,
      "Ġngel": 8388,
      "Ġharapan": 8389,
      "Ġalis": 8390,
      "Ġaspal": 8391,
      "ombin": 8392,
      "Ġhidrasi": 8393,
      "Ġampun": 8394,
      "Ġwatering": 8395,
      "ĲâķĲâķĲâķĲâķĲâķĲâķĲâķĲâķĲâķĲâķĲâķĲâķĲâķĲâķ": 8396,
      "Ġprogresif": 8397,
      "Ġmethod": 8398,
      "|---|---|---|": 8399,
      "ðŁĵĮ": 8400,
      "Ġswitch": 8401,
      "Ġinstruksi": 8402,
      "ĠLumayan": 8403,
      "Ġserbuk": 8404,
      "Ġdisiapkan": 8405,
      "Ġtripod": 8406,
      "Ġpelanggan": 8407,
      "Ġfotokopi": 8408,
      "roidery": 8409,
      "()": 8410,
      "Bagian": 8411,
      "Heat": 8412,
      "Kaki": 8413,
      "pli": 8414,
      "arc": 8415,
      "Ġsate": 8416,
      "Ġkombucha": 8417,
      "ikal": 8418,
      "Ġcom": 8419,
      "Ġinput": 8420,
      "Ġadjust": 8421,
      "ĠCenter": 8422,
      "upe": 8423,
      "ĠDesain": 8424,
      "ici": 8425,
      "âķ®": 8426,
      "Ġmenyemprot": 8427,
      "Ġpengu": 8428,
      "chor": 8429,
      "enerasi": 8430,
      "Ġziplock": 8431,
      "minum": 8432,
      "Ġterjemahan": 8433,
      "Ġrefleks": 8434,
      "Ġramai": 8435,
      "escence": 8436,
      "Ġbilasan": 8437,
      "Atau": 8438,
      "UD": 8439,
      "cak": 8440,
      "gl": 8441,
      "kop": 8442,
      "Ġend": 8443,
      "Ġbecek": 8444,
      "ĠMeny": 8445,
      "idity": 8446,
      "Ġfund": 8447,
      "ĠLidah": 8448,
      "osit": 8449,
      "Ġpenurun": 8450,
      "Ġdipanaskan": 8451,
      "ohs": 8452,
      "Ġavoid": 8453,
      "Ġdilapisi": 8454,
      "Ġplank": 8455,
      "Ġintim": 8456,
      "Ġexp": 8457,
      "Ġheadphone": 8458,
      "Ġclear": 8459,
      "Ġhormon": 8460,
      "Ġchevron": 8461,
      "Ġekspresi": 8462,
      "Henna": 8463,
      "Legato": 8464,
      "cokelat": 8465,
      "gorit": 8466,
      "kiri": 8467,
      "lubang": 8468,
      "erikan": 8469,
      "Ġlaser": 8470,
      "Ġlithium": 8471,
      "Ġcorong": 8472,
      "ille": 8473,
      "ĠSaf": 8474,
      "Ġgreen": 8475,
      "Ġkeadaan": 8476,
      "awanan": 8477,
      "ĠJump": 8478,
      "ĠJenis": 8479,
      "Ġvan": 8480,
      "terlalu": 8481,
      "Ġtreat": 8482,
      "Ġtempe": 8483,
      "engkapi": 8484,
      "Ġmenggenang": 8485,
      "ĠMaster": 8486,
      "Ġobeng": 8487,
      "ĠKelembapan": 8488,
      "erboard": 8489,
      "Ġbalok": 8490,
      "Ġlateks": 8491,
      "API": 8492,
      "Ġdidesain": 8493,
      "ĠHRV": 8494,
      "Ġloading": 8495,
      "ĠEDP": 8496,
      "Ġtengkurap": 8497,
      "ĠWiFi": 8498,
      "goritma": 8499,
      "Air": 8500,
      "aos": 8501,
      "total": 8502,
      "onic": 8503,
      "Ġrintangan": 8504,
      "Ġhobi": 8505,
      "Ġgangguan": 8506,
      "ĠBandingkan": 8507,
      "ĠKotak": 8508,
      "ĠCode": 8509,
      "airan": 8510,
      "iche": 8511,
      "ibu": 8512,
      "lex": 8513,
      "uck": 8514,
      "Ġterburu": 8515,
      "Ġmake": 8516,
      "Ġpole": 8517,
      "Ġawam": 8518,
      "Ġdigosok": 8519,
      "Ġkompresi": 8520,
      "Ġsegi": 8521,
      "Ġinfused": 8522,
      "Ġproduktif": 8523,
      "ĠKeluar": 8524,
      "ĠQR": 8525,
      "Ġmandiri": 8526,
      "Karena": 8527,
      "ĠMesin": 8528,
      "Ġalignment": 8529,
      "Ġpolyester": 8530,
      "box": 8531,
      "cek": 8532,
      "sudut": 8533,
      "zy": 8534,
      "emor": 8535,
      "apin": 8536,
      "iliran": 8537,
      "Ġhutan": 8538,
      "ĠSalah": 8539,
      "ĠAwal": 8540,
      "Ġnonton": 8541,
      "ĠBAW": 8542,
      "endly": 8543,
      "Ġ37": 8544,
      "Ġmengikat": 8545,
      "Ġmembungkus": 8546,
      "Ġvacuum": 8547,
      "asta": 8548,
      "esium": 8549,
      "ogn": 8550,
      "Ġspec": 8551,
      "usion": 8552,
      "ĠĠĠĠĠĠĠĠĠ": 8553,
      "aktek": 8554,
      "Ġivy": 8555,
      "ĠPrinc": 8556,
      "diam": 8557,
      "Ġâķ°": 8558,
      "Ġdijemur": 8559,
      "ĠMinum": 8560,
      "OBY": 8561,
      "ĠEfeknya": 8562,
      "ween": 8563,
      "ĠAsam": 8564,
      "ĠLanjutkan": 8565,
      "ITAS": 8566,
      "ĠJaddih": 8567,
      "Ġcontainer": 8568,
      "igrometer": 8569,
      "ĠPrincess": 8570,
      "Gr": 8571,
      "comm": 8572,
      "tinggi": 8573,
      "Ġtik": 8574,
      "isau": 8575,
      "Ġcotton": 8576,
      "ĠTidur": 8577,
      "ĠPanas": 8578,
      "Ġinves": 8579,
      "ĠIkat": 8580,
      "anganan": 8581,
      "ĠReel": 8582,
      "Ġsetempat": 8583,
      "ĠUjung": 8584,
      "Ġall": 8585,
      "Ġmenjelaskan": 8586,
      "Ġdicari": 8587,
      "Ġinformal": 8588,
      "Ġmesh": 8589,
      "ĠSpotify": 8590,
      "Ġclip": 8591,
      "Ġbatangnya": 8592,
      "ustakaan": 8593,
      "ĠSony": 8594,
      "Ġtermudah": 8595,
      "Ġleap": 8596,
      "manik": 8597,
      "Ġspesialis": 8598,
      "ĠNoted": 8599,
      "droid": 8600,
      "**ðŁĴ¡": 8601,
      "Malam": 8602,
      "ĮâĶĢâĶĢâĶĢâĶĢâĶĢâĶĢâĶĢâĶĢâĶĢâĶĢâĶĢâĶĢâĶĢâĶĢâĶĢâĶĢ": 8603,
      "ery": 8604,
      "unkan": 8605,
      "Ġlakban": 8606,
      "antina": 8607,
      "ĠBus": 8608,
      "ĠBert": 8609,
      "ĠBead": 8610,
      "ĠBootleg": 8611,
      "ĠMIPS": 8612,
      "Ġmenguji": 8613,
      "ĠGag": 8614,
      "ucu": 8615,
      "Ġeksekusi": 8616,
      "Ġmencampur": 8617,
      "Ġseolah": 8618,
      "ĠTrik": 8619,
      "Ġblender": 8620,
      "Ġdijelaskan": 8621,
      "Ġdijadikan": 8622,
      "ektisida": 8623,
      "Ġmedis": 8624,
      "ĠPoly": 8625,
      "eflon": 8626,
      "Hasilnya": 8627,
      "Ġpuitis": 8628,
      "================": 8629,
      "ĠTembaga": 8630,
      "tertaste": 8631,
      "ĠKuliah": 8632,
      "Ġsugar": 8633,
      "Pert": 8634,
      "]*": 8635,
      "pagi": 8636,
      "tit": 8637,
      "Ġmonstera": 8638,
      "Ġturut": 8639,
      "Ġlerak": 8640,
      "Ġdiukur": 8641,
      "ĠAg": 8642,
      "umis": 8643,
      "Ġberalih": 8644,
      "endir": 8645,
      "trasi": 8646,
      "Ġpengant": 8647,
      "aseiro": 8648,
      "Ġsekitarnya": 8649,
      "AHAN": 8650,
      "ĠStruktur": 8651,
      "ĠBuffalo": 8652,
      "27": 8653,
      "cam": 8654,
      "ced": 8655,
      "ciri": 8656,
      "osistem": 8657,
      "Ġbead": 8658,
      "elap": 8659,
      "itaman": 8660,
      "Ġcentang": 8661,
      "Ġcard": 8662,
      "Ġrange": 8663,
      "ĠTambahan": 8664,
      "Ġperan": 8665,
      "Ġuntukmu": 8666,
      "ĠDef": 8667,
      "ĠDrive": 8668,
      "odifikasi": 8669,
      "ĠNice": 8670,
      "Ġbelahan": 8671,
      "Ġdipahami": 8672,
      "ubungkan": 8673,
      "ĠAudacity": 8674,
      "ĠRecords": 8675,
      "Wall": 8676,
      "kuning": 8677,
      "rist": 8678,
      "tema": 8679,
      "Ġ?": 8680,
      "Ġdini": 8681,
      "Ġjalanan": 8682,
      "Ġrice": 8683,
      "uli": 8684,
      "ĠTulus": 8685,
      "ukt": 8686,
      "ĠBatch": 8687,
      "ĠPower": 8688,
      "Ġsetidaknya": 8689,
      "ĠNormal": 8690,
      "Ġstasiun": 8691,
      "ĠAnak": 8692,
      "ched": 8693,
      "Ġmenghalangi": 8694,
      "ĠYun": 8695,
      "abilitas": 8696,
      "Ġtanahnya": 8697,
      "Ġpahami": 8698,
      "Ġklip": 8699,
      "ĠShou": 8700,
      "Ġsenior": 8701,
      "Ġfleksibilitas": 8702,
      "rome": 8703,
      "Ġhygrometer": 8704,
      "ĠRaka": 8705,
      "ĠPencahayaan": 8706,
      "ĪâĸĪâĸĪâĸĪâĸĪâĸĪâĸĪâĸĪâĸ": 8707,
      "ðŁĶ¥ðŁĶ¥": 8708,
      "ĠPenjual": 8709,
      "Ġngeriwik": 8710,
      "PI": 8711,
      "PW": 8712,
      "Tube": 8713,
      "Ya": 8714,
      "hitam": 8715,
      "ianya": 8716,
      "oose": 8717,
      "Ġkalo": 8718,
      "Ġlompat": 8719,
      "Ġlinen": 8720,
      "adan": 8721,
      "Ġrug": 8722,
      "Ġhunting": 8723,
      "ĠSquare": 8724,
      "ags": 8725,
      "umi": 8726,
      "Ġitulah": 8727,
      "acun": 8728,
      "Ġmemindahkan": 8729,
      "ĠNPW": 8730,
      "Ġpengukuran": 8731,
      "Ġdibongkar": 8732,
      "Ġmenghitam": 8733,
      "Ġterkait": 8734,
      "Ġtakaran": 8735,
      "ixed": 8736,
      "Ġcasing": 8737,
      "Ġekosistem": 8738,
      "ENTING": 8739,
      "ĠNPWP": 8740,
      "09": 8741,
      "ts": 8742,
      "Ġbootleg": 8743,
      "Ġkin": 8744,
      "Ġkisaran": 8745,
      "Ġmater": 8746,
      "Ġjemuran": 8747,
      "ĠBahkan": 8748,
      "ĠKanan": 8749,
      "ĠHorizontal": 8750,
      "Ġwalau": 8751,
      "uhunya": 8752,
      "alogi": 8753,
      "ĠEC": 8754,
      "Ġpengaman": 8755,
      "Ġasing": 8756,
      "Ġterbang": 8757,
      "Ġpembukaan": 8758,
      "Ing": 8759,
      "ĠStore": 8760,
      "Ġ08": 8761,
      "Ġsistemnya": 8762,
      "oksida": 8763,
      "Ġsaluran": 8764,
      "Ġcrack": 8765,
      "ĠLepaskan": 8766,
      "Ġnilon": 8767,
      "iksasi": 8768,
      "Konsep": 8769,
      "IG": 8770,
      "Kem": 8771,
      "Satu": 8772,
      "enai": 8773,
      "enali": 8774,
      "atistik": 8775,
      "Ġmy": 8776,
      "ingle": 8777,
      "Ġrew": 8778,
      "Ġrajin": 8779,
      "urai": 8780,
      "ĠBun": 8781,
      "ĠBau": 8782,
      "ĠBesar": 8783,
      "oth": 8784,
      "ĠHidroponik": 8785,
      "Ġmembulat": 8786,
      "Ġsebenernya": 8787,
      "opang": 8788,
      "heel": 8789,
      "Ġrumahmu": 8790,
      "Ġprotagonis": 8791,
      "Ġacara": 8792,
      "Ġsenja": 8793,
      "ukurlah": 8794,
      "Ġinteraksi": 8795,
      "Ġgelombangnya": 8796,
      "atriat": 8797,
      "Ġmenyelesaikan": 8798,
      "Ġcasting": 8799,
      "Kekhawatiranmu": 8800,
      "ĠRumah": 8801,
      "ĠPastazanum": 8802,
      "ĠMeskipun": 8803,
      "Pem": 8804,
      "Philodendron": 8805,
      "Ġsar": 8806,
      "Ġsapi": 8807,
      "atap": 8808,
      "Ġdiencerkan": 8809,
      "adapi": 8810,
      "Ġcook": 8811,
      "Ġrating": 8812,
      "ĠSikat": 8813,
      "Ġga": 8814,
      "Ġteras": 8815,
      "Ġperendaman": 8816,
      "ĠLead": 8817,
      "ĠUp": 8818,
      "Ġsecond": 8819,
      "Ġsusunan": 8820,
      "Ġinfonya": 8821,
      "Ġrelatif": 8822,
      "Ġirit": 8823,
      "Ġliar": 8824,
      "ĠAsuransi": 8825,
      "Ġgemeter": 8826,
      "Ġtercampur": 8827,
      "Ġkeberhasilan": 8828,
      "Ġditerima": 8829,
      "aracter": 8830,
      "Warna": 8831,
      "bai": 8832,
      "nada": 8833,
      "Ġleleh": 8834,
      "ĠTujuan": 8835,
      "ĠArea": 8836,
      "Ġnga": 8837,
      "otion": 8838,
      "Ġund": 8839,
      "ĠMarket": 8840,
      "Ġfeel": 8841,
      "ĠWhatsApp": 8842,
      "ĠEPS": 8843,
      "latih": 8844,
      "Ġstrap": 8845,
      "Ġrumbai": 8846,
      "Ġvers": 8847,
      "Ġrambutku": 8848,
      "ylic": 8849,
      "ebaliknya": 8850,
      "Ġpendukung": 8851,
      "Ġslackline": 8852,
      "Ġnegatif": 8853,
      "Ġkehabisan": 8854,
      "Ġcondong": 8855,
      "Indigo": 8856,
      "Ġinstrumen": 8857,
      "Ġthrift": 8858,
      "USI": 8859,
      "misalnya": 8860,
      "asus": 8861,
      "Ġdiangkat": 8862,
      "Ġraf": 8863,
      "ilian": 8864,
      "Ġniche": 8865,
      "ĠKode": 8866,
      "Ġperangkat": 8867,
      "abase": 8868,
      "abits": 8869,
      "ebihi": 8870,
      "amping": 8871,
      "ĠDynamic": 8872,
      "ĠLeg": 8873,
      "ĠOl": 8874,
      "Ġview": 8875,
      "ataan": 8876,
      "Ġmerendam": 8877,
      "Ġmelebihi": 8878,
      "Ġketajaman": 8879,
      "Ġpelihara": 8880,
      "Ġoptic": 8881,
      "Ġreal": 8882,
      "Ġthermal": 8883,
      "belakang": 8884,
      "Ġmentega": 8885,
      "Ġmanajer": 8886,
      "Ġpuzzle": 8887,
      "Ġdiaplikasikan": 8888,
      "Ġsumpit": 8889,
      "engkokkan": 8890,
      "Cek": 8891,
      "TAMA": 8892,
      "Ġmil": 8893,
      "Ġpekan": 8894,
      "Ġcushion": 8895,
      "ulti": 8896,
      "ĠBonus": 8897,
      "--|": 8898,
      "Ġberjamur": 8899,
      "awi": 8900,
      "anjal": 8901,
      "Ġstek": 8902,
      "Ġtrap": 8903,
      "ensasi": 8904,
      "otoar": 8905,
      "Ġtempatkan": 8906,
      "ATI": 8907,
      "ĠAlbum": 8908,
      "Ġproteksi": 8909,
      "Ġoverwatering": 8910,
      "Ġmengancam": 8911,
      "Ġoli": 8912,
      "ĠGratis": 8913,
      "Ġkehitaman": 8914,
      "ĠEmangnya": 8915,
      "Ġcharge": 8916,
      "Ġidentik": 8917,
      "Ġweight": 8918,
      "radasi": 8919,
      ")*": 8920,
      "bawah": 8921,
      "das": 8922,
      "drop": 8923,
      "Ġtunjukkan": 8924,
      "otan": 8925,
      "ĠMend": 8926,
      "ĠId": 8927,
      "entase": 8928,
      "ĠJemur": 8929,
      "ĠUse": 8930,
      "ĠNitrit": 8931,
      "Ġseringkali": 8932,
      "Ġtrotoar": 8933,
      "ĠBeras": 8934,
      "intir": 8935,
      "Ġmenjal": 8936,
      "Ġchat": 8937,
      "Ġseed": 8938,
      "Ġanaly": 8939,
      "Ġteliti": 8940,
      "Ġtembak": 8941,
      "elling": 8942,
      "ĠAmonia": 8943,
      "ĠMemberi": 8944,
      "Ġâĺħâĺħâĺ": 8945,
      "Ġsuitable": 8946,
      "Nomor": 8947,
      "rat": 8948,
      "vitas": 8949,
      "ĶâĶĢâĶĢâĶĢâĶĢâĶĢâĶĢâĶĢâĶĢâĶĢâĶĢâĶĢâĶĢâĶĢâĶĢâĶĢâĶĢ": 8950,
      "anian": 8951,
      "Ġcomm": 8952,
      "Ġhiburan": 8953,
      "Ġfos": 8954,
      "ipasi": 8955,
      "ĠDana": 8956,
      "Ġmengambil": 8957,
      "angkar": 8958,
      "ĠLebar": 8959,
      "Ġmassal": 8960,
      "ĠWax": 8961,
      "Ġmint": 8962,
      "Ġsemut": 8963,
      "Â°,": 8964,
      "imatisasi": 8965,
      "imbun": 8966,
      "Ġstabilisasi": 8967,
      "Ġshellac": 8968,
      "**ðŁ¥": 8969,
      "Ġgerakannya": 8970,
      "Ġdisebutkan": 8971,
      "Ġabout": 8972,
      "Ġloop": 8973,
      "jolan": 8974,
      "Ġpushpin": 8975,
      "Prinsip": 8976,
      "Ġmacro": 8977,
      "ðŁĮ¿": 8978,
      "ĠPencegahan": 8979,
      "ĠÂ½": 8980,
      "Ġpromosi": 8981,
      "ĠâĿĵ": 8982,
      "daftar": 8983,
      "ck": 8984,
      "pita": 8985,
      "Ġbaby": 8986,
      "iness": 8987,
      "ĠkWh": 8988,
      "Ġtadinya": 8989,
      "Ġditutup": 8990,
      "Ġcucian": 8991,
      "Ġrias": 8992,
      "Ġhapus": 8993,
      "ĠKeter": 8994,
      "Ġberadaptasi": 8995,
      "Ġkeriput": 8996,
      "ĠGro": 8997,
      "terusan": 8998,
      "Ġmemori": 8999,
      "Ġtanjakan": 9000,
      "Ġterlewat": 9001,
      "Ġlapangan": 9002,
      "ĠVari": 9003,
      "Ġterkumpul": 9004,
      "Ġlayanan": 9005,
      "|-----------|--------": 9006,
      "Ġreturn": 9007,
      "ĠArabika": 9008,
      "Ġdihindari": 9009,
      "ĠBPKB": 9010,
      "ĠAntagonist": 9011,
      "Ġengine": 9012,
      "ĠKekuatan": 9013,
      "Karya": 9014,
      "ĠSeru": 9015,
      "Ġsituasi": 9016,
      "Ġbottom": 9017,
      "ĠSCOBY": 9018,
      "Ġmenjalar": 9019,
      "Bonus": 9020,
      "jain": 9021,
      "uet": 9022,
      "angis": 9023,
      "Ġrebus": 9024,
      "Ġ(\"": 9025,
      "Ġni": 9026,
      "ĠIk": 9027,
      "ĠDJ": 9028,
      "ĠDin": 9029,
      "entasikan": 9030,
      "Ġngasih": 9031,
      "airkan": 9032,
      "ication": 9033,
      "Ġpenger": 9034,
      "Ġpengait": 9035,
      "intar": 9036,
      "Ġmencolok": 9037,
      "ansel": 9038,
      "Ġresist": 9039,
      "Ġresolusi": 9040,
      "Ġpembayaran": 9041,
      "ĠPrioritas": 9042,
      "Ġberlawanan": 9043,
      "**ðŁİ": 9044,
      "Ġtulisannya": 9045,
      "ĠProduk": 9046,
      "Ġisian": 9047,
      "Ġminuman": 9048,
      "ĠðŁĵĭ": 9049,
      "Ġimun": 9050,
      "ĠâĺĲ": 9051,
      "ĠVertikal": 9052,
      "Ġstudio": 9053,
      "Ġepis": 9054,
      "ĠYouTube": 9055,
      "Ġinvestor": 9056,
      "ĠKandungan": 9057,
      "*:": 9058,
      "-|------------": 9059,
      "Lem": 9060,
      "drive": 9061,
      "foli": 9062,
      "taf": 9063,
      "teman": 9064,
      "Ġbata": 9065,
      "ĠmV": 9066,
      "Ġpons": 9067,
      "Ġlid": 9068,
      "ikis": 9069,
      "ĠAgak": 9070,
      "ĠBeb": 9071,
      "ĠKom": 9072,
      "ĠKipas": 9073,
      "Ġterapkan": 9074,
      "Ġmenerap": 9075,
      "ĠRapat": 9076,
      "Ġmengerti": 9077,
      "ecti": 9078,
      "Ġmemerlukan": 9079,
      "Ġmerembes": 9080,
      "Ġalokasi": 9081,
      "ĠTerm": 9082,
      "Ġdisentuh": 9083,
      "ĠPersia": 9084,
      "Ġkeselamatan": 9085,
      "Ġkeseluruhan": 9086,
      "Ġgambarnya": 9087,
      "âĶĢâĶĢâĶĢâĶĢâĶĢâĶĢâĶĢâĶĢâĶĢâĶĢâĶĢâĶĢâĶĢâĶĢâĶĢâĶĢâĶĢâĶĢâĶ": 9088,
      "ĠKonsisten": 9089,
      "Ġsatin": 9090,
      "ĠLatar": 9091,
      "plier": 9092,
      "Ġponsel": 9093,
      "?\"*": 9094,
      "As": 9095,
      "JANGAN": 9096,
      "Kec": 9097,
      "Kombinasi": 9098,
      "Media": 9099,
      "fri": 9100,
      "water": 9101,
      "Ġsuatu": 9102,
      "Ġbacanya": 9103,
      "Ġpump": 9104,
      "Ġpaint": 9105,
      "Ġcustom": 9106,
      "Ġretakan": 9107,
      "Ġkeep": 9108,
      "Ġperi": 9109,
      "Ġperadangan": 9110,
      "ĠPal": 9111,
      "abungan": 9112,
      "Ġ34": 9113,
      "ĠDrop": 9114,
      "Ġmengej": 9115,
      "Ġngukur": 9116,
      "Ġbuatnya": 9117,
      "Ġpruning": 9118,
      "Ġstamper": 9119,
      "Ġtangannya": 9120,
      "Ġketik": 9121,
      "ockup": 9122,
      "ĠMingguan": 9123,
      "ĠStrip": 9124,
      "ĠManfaat": 9125,
      "ĠSPF": 9126,
      "ĠCuprea": 9127,
      "Ġoperasional": 9128,
      "cording": 9129,
      "tigasi": 9130,
      "ĠBAWAH": 9131,
      "Ġinvestigasi": 9132,
      "friendly": 9133,
      "08": 9134,
      "76": 9135,
      "Tinggi": 9136,
      "kain": 9137,
      "kec": 9138,
      "oint": 9139,
      "pack": 9140,
      "Ġajarkan": 9141,
      "Ġdue": 9142,
      "enam": 9143,
      "Ġhiasan": 9144,
      "ĠSting": 9145,
      "ĠSebaliknya": 9146,
      "ĠTree": 9147,
      "ĠKursi": 9148,
      "Ġpertumb": 9149,
      "Ġwaspada": 9150,
      "Â°)": 9151,
      "Ġputing": 9152,
      "ancy": 9153,
      "vei": 9154,
      "wave": 9155,
      "ĠKarakter": 9156,
      "Ġberkas": 9157,
      "etulan": 9158,
      "Ġminiatur": 9159,
      "Ġmelakukannya": 9160,
      "Ġgeologi": 9161,
      "ĠPenggunaan": 9162,
      "Ġroller": 9163,
      "aphrase": 9164,
      "Ġkunyit": 9165,
      "Ġkebalikan": 9166,
      "ombinasikan": 9167,
      "ĠStingray": 9168,
      "Ġpertumbuhannya": 9169,
      "Con": 9170,
      "Tiga": 9171,
      "botol": 9172,
      "double": 9173,
      "ftertaste": 9174,
      "glass": 9175,
      "ten": 9176,
      "Ġdon": 9177,
      "Ġbongkar": 9178,
      "Ġpuas": 9179,
      "Ġpcs": 9180,
      "Ġtungg": 9181,
      "emium": 9182,
      "Ġdile": 9183,
      "ĠSEL": 9184,
      "orage": 9185,
      "oleksi": 9186,
      "ĠRO": 9187,
      "ĠOp": 9188,
      "Ġngisi": 9189,
      "Ġmemuas": 9190,
      "ĠUN": 9191,
      "Ġselimut": 9192,
      "ĠNy": 9193,
      "Ġsemi": 9194,
      "ĠFaktor": 9195,
      "ĠFermentasi": 9196,
      "Ġpengiriman": 9197,
      "Ġukir": 9198,
      "Ġdraft": 9199,
      "Ġbrilian": 9200,
      "Ġsilver": 9201,
      "Ġmust": 9202,
      "Ġbayam": 9203,
      "ĠGrad": 9204,
      "Ant": 9205,
      "Berd": 9206,
      "ĠLumut": 9207,
      "Ġaudio": 9208,
      "Ġkuratorial": 9209,
      "echn": 9210,
      "Ġmelunakkan": 9211,
      "issue": 9212,
      "Ġdilew": 9213,
      "Ġmemuaskan": 9214,
      "Bus": 9215,
      "fused": 9216,
      "fort": 9217,
      "ty": 9218,
      "elance": 9219,
      "eta": 9220,
      "agr": 9221,
      "irul": 9222,
      "ĠMenc": 9223,
      "Ġmengental": 9224,
      "Ġmenguasai": 9225,
      "Ġkeruh": 9226,
      "aikinya": 9227,
      "Ġmenyediakan": 9228,
      "Ġcheck": 9229,
      "ĠArahkan": 9230,
      "Ġpenjepit": 9231,
      "ĠAnggap": 9232,
      "Ġkejutan": 9233,
      "Ġburung": 9234,
      "ĠGloriosum": 9235,
      "Ġmemperlambat": 9236,
      "Ġpecahan": 9237,
      "Ġmemperbaikinya": 9238,
      "Ġsopan": 9239,
      "33": 9240,
      "CU": 9241,
      "LANGKAH": 9242,
      "MR": 9243,
      "Merah": 9244,
      "ield": 9245,
      "jalan": 9246,
      "atin": 9247,
      "Ġtur": 9248,
      "elihara": 9249,
      "apar": 9250,
      "aptasi": 9251,
      "Ġnew": 9252,
      "ĠKap": 9253,
      "ominal": 9254,
      "Ġmeledak": 9255,
      "Ġmakanya": 9256,
      "Ġkakek": 9257,
      "Ġstring": 9258,
      "stan": 9259,
      "ansa": 9260,
      "Ġankle": 9261,
      "Ġkrem": 9262,
      "Ġdiker": 9263,
      "Ġcerdas": 9264,
      "Ġdicat": 9265,
      "Ġberlaku": 9266,
      "Ġsirip": 9267,
      "Ġsirup": 9268,
      "Ġprosesor": 9269,
      "Ġdinginkan": 9270,
      "menya": 9271,
      "ĠParfum": 9272,
[...]
